// Auto-generated file - DO NOT EDIT
// Generated on: 2025-11-23 20:49:30
// Source: model_float32.tflite

#ifndef MODEL_DATA_H
#define MODEL_DATA_H

alignas(8) const unsigned char g_model[] = {
  0x1c, 0x00, 0x00, 0x00, 0x54, 0x46, 0x4c, 0x33, 0x14, 0x00, 0x20, 0x00, 0x1c, 0x00, 0x18, 0x00,
  0x14, 0x00, 0x10, 0x00, 0x0c, 0x00, 0x00, 0x00, 0x08, 0x00, 0x04, 0x00, 0x14, 0x00, 0x00, 0x00,
  0x1c, 0x00, 0x00, 0x00, 0x80, 0x00, 0x00, 0x00, 0xb0, 0x00, 0x00, 0x00, 0x88, 0x2c, 0x00, 0x00,
  0x98, 0x2c, 0x00, 0x00, 0x44, 0x34, 0x00, 0x00, 0x03, 0x00, 0x00, 0x00, 0x01, 0x00, 0x00, 0x00,
  0x04, 0x00, 0x00, 0x00, 0x76, 0xd2, 0xff, 0xff, 0x0c, 0x00, 0x00, 0x00, 0x1c, 0x00, 0x00, 0x00,
  0x38, 0x00, 0x00, 0x00, 0x0f, 0x00, 0x00, 0x00, 0x73, 0x65, 0x72, 0x76, 0x69, 0x6e, 0x67, 0x5f,
  0x64, 0x65, 0x66, 0x61, 0x75, 0x6c, 0x74, 0x00, 0x01, 0x00, 0x00, 0x00, 0x04, 0x00, 0x00, 0x00,
  0xc4, 0xff, 0xff, 0xff, 0x0d, 0x00, 0x00, 0x00, 0x04, 0x00, 0x00, 0x00, 0x07, 0x00, 0x00, 0x00,
  0x64, 0x65, 0x6e, 0x73, 0x65, 0x5f, 0x31, 0x00, 0x01, 0x00, 0x00, 0x00, 0x04, 0x00, 0x00, 0x00,
  0x56, 0xd3, 0xff, 0xff, 0x04, 0x00, 0x00, 0x00, 0x07, 0x00, 0x00, 0x00, 0x69, 0x6e, 0x70, 0x75,
  0x74, 0x5f, 0x31, 0x00, 0x01, 0x00, 0x00, 0x00, 0x0c, 0x00, 0x00, 0x00, 0x08, 0x00, 0x0c, 0x00,
  0x08, 0x00, 0x04, 0x00, 0x08, 0x00, 0x00, 0x00, 0x0f, 0x00, 0x00, 0x00, 0x04, 0x00, 0x00, 0x00,
  0x13, 0x00, 0x00, 0x00, 0x6d, 0x69, 0x6e, 0x5f, 0x72, 0x75, 0x6e, 0x74, 0x69, 0x6d, 0x65, 0x5f,
  0x76, 0x65, 0x72, 0x73, 0x69, 0x6f, 0x6e, 0x00, 0x10, 0x00, 0x00, 0x00, 0xd4, 0x2b, 0x00, 0x00,
  0xcc, 0x2b, 0x00, 0x00, 0x9c, 0x2b, 0x00, 0x00, 0x0c, 0x2b, 0x00, 0x00, 0xdc, 0x2a, 0x00, 0x00,
  0xc4, 0x2a, 0x00, 0x00, 0xb4, 0x06, 0x00, 0x00, 0xa4, 0x02, 0x00, 0x00, 0x54, 0x00, 0x00, 0x00,
  0x4c, 0x00, 0x00, 0x00, 0x44, 0x00, 0x00, 0x00, 0x3c, 0x00, 0x00, 0x00, 0x34, 0x00, 0x00, 0x00,
  0x2c, 0x00, 0x00, 0x00, 0x24, 0x00, 0x00, 0x00, 0x04, 0x00, 0x00, 0x00, 0xe2, 0xd3, 0xff, 0xff,
  0x04, 0x00, 0x00, 0x00, 0x10, 0x00, 0x00, 0x00, 0x31, 0x2e, 0x35, 0x2e, 0x30, 0x00, 0x00, 0x00,
  0x00, 0x00, 0x00, 0x00, 0x00, 0x00, 0x00, 0x00, 0xfc, 0xcc, 0xff, 0xff, 0x00, 0xcd, 0xff, 0xff,
  0x04, 0xcd, 0xff, 0xff, 0x08, 0xcd, 0xff, 0xff, 0x0c, 0xcd, 0xff, 0xff, 0x10, 0xcd, 0xff, 0xff,
  0x16, 0xd4, 0xff, 0xff, 0x04, 0x00, 0x00, 0x00, 0x40, 0x02, 0x00, 0x00, 0x9f, 0xa9, 0x3a, 0xbc,
  0xa9, 0x9f, 0x8f, 0xc0, 0x36, 0x20, 0x8f, 0xbc, 0xee, 0x2c, 0x2b, 0xc0, 0x4f, 0x7a, 0x3d, 0xbf,
  0xc7, 0xe9, 0x87, 0x40, 0x9b, 0x8b, 0x19, 0x3d, 0xb8, 0x1b, 0xf8, 0x3e, 0x08, 0x1b, 0x7f, 0xbd,
  0x13, 0xed, 0x12, 0xbf, 0x48, 0x22, 0x92, 0x3c, 0x44, 0xb2, 0x6b, 0x3e, 0x92, 0x05, 0x06, 0xbf,
  0xf8, 0x75, 0xa7, 0x40, 0x7d, 0x7c, 0x9d, 0xbc, 0xc8, 0x53, 0x6d, 0xc0, 0x2e, 0x7d, 0x12, 0xbc,
  0x19, 0x42, 0xa6, 0xc0, 0x6d, 0xe6, 0x96, 0xbe, 0xda, 0x61, 0x87, 0x40, 0x3c, 0x51, 0x6a, 0xbe,
  0x2a, 0xde, 0xd6, 0x3f, 0x29, 0x71, 0xdf, 0xbd, 0xf5, 0x37, 0x87, 0x3e, 0xc3, 0xa1, 0x93, 0x3c,
  0xcd, 0x50, 0x7f, 0xc0, 0x27, 0x5e, 0x0a, 0x3e, 0xbf, 0x52, 0xb0, 0xc0, 0x39, 0xb7, 0x3a, 0xbe,
  0x11, 0x99, 0x83, 0xc0, 0xa1, 0x18, 0x40, 0x3b, 0xef, 0xb7, 0xf3, 0x3c, 0x50, 0x22, 0xb3, 0x3d,
  0x19, 0xe2, 0xa5, 0xbe, 0x73, 0x39, 0xb3, 0xbe, 0x4a, 0xd9, 0x91, 0x40, 0xf0, 0xa6, 0x07, 0x3b,
  0x94, 0x98, 0xad, 0xc0, 0xa4, 0x4f, 0x33, 0xbe, 0x29, 0x53, 0x3b, 0x3f, 0x35, 0x5f, 0x96, 0xbd,
  0x53, 0x57, 0x2c, 0xbf, 0x07, 0xef, 0x96, 0xbe, 0xe3, 0xdc, 0x3e, 0xc0, 0x4c, 0xd7, 0x91, 0x3d,
  0x94, 0xe1, 0x03, 0xbf, 0x98, 0xe4, 0x12, 0x3d, 0xd3, 0x38, 0xf9, 0xbf, 0x7b, 0x73, 0x08, 0xc1,
  0xfd, 0xf5, 0x68, 0x40, 0x3b, 0x3f, 0x59, 0x3c, 0x00, 0x53, 0xf8, 0xbf, 0x28, 0xa6, 0x22, 0x3d,
  0x50, 0x8e, 0x1d, 0xc0, 0x9b, 0x39, 0x9b, 0x3b, 0x6b, 0xa7, 0x06, 0xbf, 0x9d, 0xec, 0xa2, 0x3c,
  0xe8, 0x1c, 0x24, 0xc0, 0x22, 0x85, 0x41, 0xbb, 0xb1, 0x77, 0x8f, 0xc0, 0xdd, 0x7e, 0xc2, 0xbf,
  0xe6, 0x05, 0x9f, 0x40, 0x0b, 0x09, 0xf6, 0xbe, 0xdd, 0xf4, 0x83, 0x3f, 0x38, 0x6e, 0xa6, 0xbe,
  0xd2, 0x56, 0x69, 0x40, 0x96, 0xd0, 0x9d, 0xbb, 0xf2, 0x3d, 0x25, 0xc0, 0xaa, 0x8e, 0xc8, 0xbc,
  0xd0, 0xa8, 0x09, 0xc1, 0xe7, 0x8c, 0x1e, 0xbd, 0x93, 0x8e, 0xe4, 0x3f, 0x64, 0x3b, 0xdc, 0xbc,
  0x5a, 0xae, 0x1b, 0xbf, 0xd2, 0x12, 0x27, 0xbf, 0x84, 0xf8, 0xd3, 0x40, 0x73, 0x31, 0xb4, 0xbc,
  0xc1, 0x61, 0xa8, 0xbe, 0x21, 0xf7, 0x03, 0x3d, 0x4b, 0x63, 0x81, 0xc0, 0x44, 0x5a, 0x1d, 0x3c,
  0xdf, 0x32, 0xc3, 0xc0, 0x21, 0x69, 0xab, 0x3b, 0x2d, 0xed, 0xa3, 0xc0, 0x2a, 0x8a, 0xce, 0xbe,
  0x7e, 0x2b, 0x2f, 0x40, 0xf5, 0x15, 0xc6, 0xbd, 0x6e, 0x89, 0x20, 0x40, 0x9c, 0xcc, 0x9b, 0xbe,
  0x7d, 0x47, 0x38, 0x40, 0x56, 0x8c, 0xc4, 0xbc, 0xd5, 0xc1, 0xf3, 0xbf, 0x6e, 0xb5, 0x09, 0xbf,
  0x45, 0xdd, 0xd0, 0x40, 0x2b, 0x95, 0xdb, 0xbc, 0xbf, 0x39, 0x53, 0xc0, 0x6e, 0x6a, 0x5a, 0xbd,
  0x97, 0xef, 0xd5, 0xc0, 0x05, 0x7c, 0xcd, 0xbe, 0x87, 0x93, 0xf4, 0xc0, 0x68, 0xdb, 0xc3, 0xbc,
  0x7e, 0x81, 0xb5, 0xc0, 0xce, 0x89, 0x45, 0x3c, 0x3d, 0x2c, 0x53, 0x3d, 0x11, 0xa9, 0x84, 0xc0,
  0x24, 0x68, 0xa9, 0x40, 0x19, 0xf4, 0xae, 0x3b, 0x25, 0xfe, 0x51, 0x3f, 0x99, 0xc0, 0x67, 0xbd,
  0xfb, 0xf7, 0x1f, 0xc0, 0xa0, 0xbc, 0x96, 0x3c, 0x3e, 0x63, 0x34, 0xc0, 0xeb, 0x70, 0x04, 0xbd,
  0x09, 0x96, 0x21, 0xc0, 0xbd, 0x9a, 0x37, 0xbd, 0x38, 0xaf, 0x14, 0x3f, 0x23, 0x7f, 0x75, 0xbd,
  0x6e, 0x7d, 0xd0, 0xbe, 0x54, 0xab, 0xe8, 0xbc, 0xe4, 0xaa, 0x83, 0xbf, 0xf7, 0xc2, 0x23, 0xbe,
  0x7b, 0xe4, 0x47, 0x40, 0x9e, 0x7d, 0x23, 0x3c, 0x8f, 0x7c, 0xa2, 0xbf, 0x33, 0xa3, 0xb1, 0xbd,
  0x63, 0xcb, 0xb0, 0x40, 0xb1, 0x5b, 0xdc, 0x3c, 0xc2, 0x52, 0x88, 0xbe, 0x28, 0x72, 0x54, 0xb8,
  0xb9, 0xe2, 0x67, 0xbf, 0x58, 0x2b, 0xdf, 0xbe, 0x30, 0x16, 0xf4, 0xbf, 0x0b, 0x2a, 0x0a, 0xbd,
  0x5c, 0xfc, 0xc2, 0xbf, 0xc9, 0xe9, 0xd0, 0xbd, 0xba, 0xbc, 0xe1, 0x3f, 0x95, 0x43, 0x10, 0x3d,
  0x29, 0xd5, 0xf8, 0x3f, 0x09, 0x6c, 0xfb, 0xbc, 0x8e, 0x67, 0x43, 0xc0, 0x5a, 0x3a, 0xcf, 0xbf,
  0xb3, 0x10, 0xd7, 0xbe, 0x09, 0x17, 0x88, 0xc0, 0xc4, 0x3a, 0x52, 0xbe, 0x62, 0xd6, 0xff, 0xff,
  0x04, 0x00, 0x00, 0x00, 0x00, 0x04, 0x00, 0x00, 0x57, 0x22, 0x82, 0x3e, 0x89, 0x19, 0x28, 0x3e,
  0x7b, 0x7c, 0x41, 0x3d, 0x34, 0xd9, 0x9c, 0xbf, 0xe0, 0x23, 0x1d, 0xc0, 0x41, 0x46, 0x5c, 0x3f,
  0x64, 0x89, 0x11, 0xbf, 0x67, 0xa9, 0x39, 0xbf, 0x33, 0x5b, 0x48, 0x3e, 0xad, 0xb9, 0x2e, 0xbf,
  0xa4, 0xb0, 0xce, 0xbf, 0x2b, 0x61, 0x2e, 0xbf, 0xdd, 0x1f, 0x24, 0xbe, 0xf3, 0x3b, 0xa3, 0xbe,
  0x13, 0xe2, 0xc3, 0xbf, 0x95, 0x50, 0x92, 0xbf, 0xf8, 0x37, 0xb6, 0xbe, 0x5f, 0x63, 0x3c, 0xbf,
  0x55, 0xb5, 0x1b, 0xc0, 0xa9, 0x8b, 0x9f, 0xc0, 0x64, 0xb0, 0xdb, 0xbf, 0x5e, 0xf5, 0xad, 0xbe,
  0x5d, 0x77, 0xc8, 0xbe, 0xc5, 0xad, 0x36, 0xbf, 0xa9, 0xf2, 0xb1, 0xbe, 0x03, 0x99, 0x00, 0xbf,
  0x22, 0x06, 0x56, 0xbf, 0xe6, 0x5b, 0x7d, 0xbf, 0x0c, 0xe3, 0x43, 0xc0, 0x2d, 0xae, 0x91, 0xbe,
  0xf3, 0xfc, 0x80, 0xbe, 0xda, 0x1a, 0xad, 0xbe, 0xea, 0x48, 0x83, 0xbe, 0x12, 0x4c, 0x00, 0x3f,
  0xb4, 0x30, 0x09, 0xbf, 0x83, 0x51, 0x85, 0x3d, 0xed, 0x96, 0xf8, 0xbd, 0x06, 0x52, 0x56, 0x3d,
  0xc1, 0x70, 0x1b, 0xbf, 0xf3, 0x74, 0x0c, 0xbf, 0xd6, 0x4d, 0xda, 0xbd, 0x2f, 0xaa, 0x84, 0xbf,
  0xe5, 0x4f, 0xcb, 0x3d, 0xa8, 0x88, 0xcb, 0xbe, 0xd5, 0x0c, 0x92, 0xbe, 0x54, 0x78, 0xfe, 0xbd,
  0x6c, 0x05, 0x12, 0xbe, 0x13, 0xc9, 0x0f, 0x3d, 0x44, 0x15, 0xc4, 0xbe, 0x18, 0x5b, 0xcb, 0xbe,
  0xfc, 0x78, 0x26, 0xc0, 0x25, 0x0c, 0xc6, 0xbe, 0x9e, 0xaf, 0x8e, 0xbf, 0xac, 0x70, 0xba, 0xbe,
  0x32, 0xe5, 0xdb, 0xbf, 0xb5, 0x92, 0x3c, 0xbe, 0xff, 0xbe, 0xf4, 0xbd, 0x92, 0x05, 0xab, 0xbe,
  0xe7, 0xe7, 0x99, 0x3c, 0x0a, 0x86, 0xe1, 0xbe, 0x4f, 0xb0, 0x3e, 0xbe, 0x87, 0x14, 0xbd, 0xbe,
  0x52, 0x02, 0xeb, 0x3e, 0x1b, 0xe8, 0x2a, 0xbd, 0xf7, 0x50, 0x9d, 0x3e, 0x1f, 0x8f, 0x0e, 0x3f,
  0xf6, 0x7e, 0xae, 0x3e, 0x39, 0xca, 0x0a, 0x3f, 0x8d, 0xd7, 0x5f, 0xbf, 0x3b, 0x01, 0x0c, 0xbd,
  0x49, 0x47, 0xf0, 0xbc, 0xc7, 0xee, 0xb0, 0x3e, 0x09, 0x12, 0x14, 0xbe, 0xa0, 0x5b, 0x04, 0xbf,
  0xcb, 0xd7, 0xe1, 0x3e, 0x15, 0xe2, 0xf1, 0x3d, 0xa1, 0xf5, 0x12, 0x3e, 0x85, 0xfb, 0x6f, 0xbe,
  0x9a, 0x1e, 0x07, 0x3f, 0xc4, 0x97, 0x15, 0x3f, 0x85, 0x88, 0x57, 0x3e, 0x0a, 0xb9, 0x65, 0x3d,
  0x2b, 0xf9, 0xee, 0xbe, 0x8b, 0x4c, 0x1a, 0xbf, 0xc9, 0x50, 0x41, 0xbe, 0xba, 0x76, 0x73, 0xbe,
  0xf0, 0x3f, 0x72, 0xbe, 0x99, 0x82, 0x6a, 0x3d, 0x8d, 0x6a, 0x2e, 0x3e, 0x9a, 0x19, 0xa5, 0xbe,
  0x28, 0xf9, 0xba, 0x3e, 0xae, 0x7f, 0xb5, 0xbe, 0x9d, 0x93, 0xd5, 0x3e, 0xfa, 0x2e, 0xc4, 0x3c,
  0xc2, 0xa1, 0x6e, 0x3e, 0xf0, 0xa6, 0xc8, 0x3e, 0x2c, 0x9b, 0x01, 0x3d, 0x26, 0xb3, 0x9d, 0xbf,
  0x66, 0xd8, 0xf4, 0x3e, 0x9b, 0x90, 0x79, 0xbf, 0x4d, 0x0b, 0x18, 0xbe, 0xb6, 0x22, 0x20, 0x3e,
  0x38, 0x16, 0x3c, 0x3f, 0x83, 0x40, 0x65, 0x3e, 0x08, 0xfa, 0xe6, 0x3e, 0x51, 0xc1, 0xc6, 0x3e,
  0x80, 0xec, 0xa0, 0xc0, 0x90, 0x4b, 0x8b, 0xbe, 0xe7, 0x4b, 0x97, 0xbe, 0x8c, 0x93, 0x08, 0xbe,
  0xa6, 0xdd, 0xca, 0xbd, 0x73, 0x20, 0xff, 0xbe, 0x22, 0x4c, 0x3e, 0x3e, 0xf7, 0x7f, 0x38, 0x3e,
  0xa9, 0x28, 0x34, 0xbf, 0x8a, 0x6a, 0x71, 0xbf, 0x7a, 0x43, 0xe6, 0x3d, 0xc3, 0xed, 0xe4, 0x3e,
  0x10, 0xc1, 0x28, 0xbd, 0x1c, 0x4a, 0xd4, 0xbe, 0xac, 0x3b, 0xcb, 0xbe, 0x58, 0xac, 0xe0, 0x3e,
  0x4b, 0x05, 0x45, 0xbf, 0x2c, 0x69, 0x17, 0xbe, 0x6b, 0xd9, 0xf4, 0xbe, 0xc0, 0xe3, 0x95, 0xbe,
  0xd2, 0xa3, 0x56, 0xbe, 0x05, 0xaa, 0x96, 0xbf, 0x78, 0x8d, 0x96, 0xbe, 0x43, 0x11, 0x6a, 0xbe,
  0x1a, 0xbd, 0x83, 0x3e, 0x63, 0x5b, 0xd6, 0x3e, 0x33, 0x58, 0xc2, 0xbd, 0x51, 0xe7, 0x5e, 0xbd,
  0x0b, 0xff, 0xb5, 0x3e, 0xed, 0xec, 0x61, 0xbf, 0x5d, 0x0c, 0xc3, 0xbc, 0x6c, 0xb1, 0x59, 0xbf,
  0x33, 0xe0, 0x4c, 0x3e, 0xc5, 0x45, 0x55, 0xbe, 0x94, 0x13, 0xec, 0xbe, 0xd6, 0xc7, 0x96, 0x3e,
  0x70, 0xf6, 0x4d, 0xbe, 0x20, 0xa9, 0x87, 0x3e, 0xee, 0x7e, 0x9d, 0xbe, 0x66, 0x0b, 0xf5, 0x3e,
  0xd4, 0x21, 0x82, 0x3e, 0x87, 0xd7, 0xa8, 0x3e, 0x8e, 0x43, 0xcb, 0x3e, 0x2a, 0x29, 0xac, 0xbe,
  0x30, 0xc4, 0xb3, 0x3d, 0x60, 0x6e, 0x86, 0x3e, 0x7c, 0x17, 0xcd, 0xbe, 0x82, 0x18, 0x4d, 0x3e,
  0xcc, 0xfb, 0xc1, 0x3e, 0x84, 0x86, 0xcb, 0x3d, 0xa0, 0xa5, 0x2b, 0xbd, 0xe6, 0xe6, 0xba, 0x3e,
  0xf7, 0x74, 0x6f, 0xbe, 0xd5, 0x34, 0x35, 0xbe, 0xfd, 0xe0, 0xe2, 0xbd, 0x10, 0xd6, 0x6f, 0xbf,
  0x37, 0xe3, 0x19, 0xbe, 0x42, 0x5b, 0x06, 0x3c, 0x6a, 0x04, 0x0f, 0x3f, 0x56, 0x30, 0xc1, 0x3e,
  0x33, 0xb7, 0x4a, 0xbe, 0xe7, 0xc0, 0xd3, 0x3e, 0xb1, 0x78, 0xdc, 0xbb, 0x3e, 0x5e, 0x66, 0x3f,
  0x81, 0xa8, 0x6b, 0xbf, 0x42, 0xf4, 0x52, 0xbd, 0x79, 0x3c, 0x01, 0xbf, 0x8a, 0xd0, 0x22, 0x3e,
  0xc4, 0xca, 0xb8, 0x3d, 0x03, 0xd1, 0x1e, 0xbe, 0x7e, 0x73, 0x24, 0x3d, 0x86, 0xcf, 0xbe, 0x3e,
  0xf3, 0xff, 0x9b, 0xbe, 0x9e, 0xf5, 0xbf, 0x3a, 0x4e, 0x14, 0xac, 0x3e, 0x53, 0x35, 0x00, 0x3f,
  0x53, 0x82, 0x9d, 0xbd, 0xaa, 0x11, 0x8b, 0xbd, 0x6a, 0x6e, 0xbf, 0xbe, 0x8c, 0x59, 0x9d, 0x3e,
  0xa6, 0x72, 0x1a, 0x3d, 0xd2, 0xeb, 0xcc, 0x3e, 0x47, 0xc9, 0x98, 0xbd, 0x16, 0x9a, 0xa8, 0x3e,
  0x46, 0x66, 0x52, 0xbe, 0x68, 0x09, 0x32, 0xbe, 0x4b, 0xfd, 0xac, 0xbd, 0x6e, 0x06, 0xc1, 0x3d,
  0x8f, 0x75, 0x7b, 0xbe, 0xe8, 0x39, 0x86, 0xbe, 0x94, 0x6e, 0x81, 0xbe, 0x08, 0x0a, 0x49, 0x3e,
  0x07, 0x2c, 0x26, 0xbe, 0xc1, 0x6e, 0x24, 0xbd, 0xa4, 0x0c, 0x3b, 0xbe, 0x93, 0xc4, 0x2a, 0x3f,
  0x7a, 0x16, 0x26, 0xbf, 0x4e, 0xef, 0xb7, 0x3d, 0x07, 0x5a, 0x96, 0xbe, 0x88, 0xdb, 0xa7, 0xbe,
  0x83, 0x12, 0x0c, 0x3f, 0x62, 0xb7, 0x6a, 0xbe, 0x72, 0xd8, 0xea, 0xbd, 0x22, 0xba, 0xdc, 0xbd,
  0xbb, 0xaa, 0x22, 0xbf, 0x8e, 0xde, 0x3f, 0xbf, 0x7f, 0x07, 0x45, 0xbe, 0x8b, 0xcf, 0x04, 0x3f,
  0xe9, 0x23, 0x1b, 0xbf, 0xb2, 0x59, 0x8f, 0xbe, 0xcf, 0x35, 0x0c, 0x3c, 0xbd, 0x41, 0x03, 0x3f,
  0x5f, 0xe6, 0x10, 0x3e, 0x6e, 0x74, 0x8a, 0xbe, 0x10, 0x08, 0x2c, 0x3f, 0xba, 0x58, 0x5f, 0xbe,
  0xa4, 0x1a, 0xe9, 0x3e, 0x0f, 0xc0, 0x3e, 0x3e, 0x98, 0x77, 0x9c, 0x3e, 0xe3, 0x01, 0x35, 0xbf,
  0x3f, 0x29, 0x7a, 0xbd, 0x8a, 0xbe, 0xad, 0xbd, 0xcd, 0x11, 0xf1, 0xbe, 0xf0, 0xb1, 0xb5, 0x3d,
  0xfb, 0x36, 0x18, 0xbd, 0x0e, 0x5b, 0x2e, 0x3f, 0x18, 0xd6, 0x55, 0xbe, 0x69, 0x2b, 0x47, 0xbd,
  0x5d, 0x2a, 0x77, 0xbf, 0xb3, 0xf4, 0xa9, 0x3e, 0x39, 0x71, 0x6e, 0x3e, 0xdd, 0x71, 0x56, 0xbe,
  0x2c, 0xe7, 0x42, 0xbe, 0x73, 0xf7, 0x81, 0x3e, 0x5f, 0x9e, 0x8f, 0xbe, 0xb9, 0x61, 0xea, 0x3e,
  0xc9, 0x3d, 0xdb, 0x3e, 0xb5, 0x23, 0x72, 0xbf, 0x95, 0xe3, 0x1b, 0x3e, 0xe3, 0x64, 0x10, 0xbe,
  0xc9, 0x94, 0x74, 0xbf, 0xb8, 0x9b, 0xb1, 0xbe, 0x7d, 0xe4, 0x87, 0x3d, 0xd8, 0x63, 0x9a, 0xbe,
  0x6f, 0xc4, 0x22, 0xbe, 0xba, 0x37, 0x9d, 0xbe, 0x0f, 0xef, 0xbd, 0x3e, 0x75, 0x98, 0x7f, 0xbe,
  0xf3, 0xde, 0x9b, 0x3e, 0xb3, 0x71, 0xda, 0x3e, 0x6e, 0xda, 0xff, 0xff, 0x04, 0x00, 0x00, 0x00,
  0x00, 0x24, 0x00, 0x00, 0x85, 0x1b, 0xf8, 0xbf, 0x85, 0xc4, 0xf6, 0xbf, 0x75, 0xec, 0x4e, 0xc0,
  0xec, 0xe2, 0xb2, 0xbf, 0xa0, 0xe9, 0x6f, 0xc0, 0x45, 0x30, 0xea, 0xbe, 0x95, 0x73, 0x4c, 0xc0,
  0xe7, 0xf0, 0xbb, 0xbe, 0x6e, 0x2d, 0x94, 0x3f, 0x1d, 0x37, 0xb3, 0xc0, 0x16, 0x0c, 0x00, 0xbf,
  0x7c, 0x22, 0x4d, 0xbd, 0xde, 0x06, 0x82, 0xbf, 0xd0, 0x18, 0xaa, 0xbf, 0xcd, 0xc7, 0x89, 0x3d,
  0xbe, 0x81, 0x03, 0xbc, 0x36, 0x7c, 0xce, 0x3f, 0xdf, 0x14, 0x8f, 0xc0, 0xc4, 0x15, 0x62, 0xbd,
  0x84, 0x62, 0xf3, 0x3e, 0x0f, 0x48, 0xd2, 0xbe, 0xe1, 0x54, 0x9b, 0xbf, 0x04, 0xa9, 0x16, 0x3c,
  0xd0, 0x37, 0x20, 0xbd, 0x81, 0x86, 0x1a, 0x3e, 0x55, 0x35, 0xad, 0xbf, 0x9b, 0xab, 0x28, 0xbf,
  0x43, 0xe9, 0xfc, 0xbf, 0x62, 0x4c, 0x3e, 0x3f, 0x4e, 0x23, 0x14, 0xbe, 0xdd, 0x91, 0xaf, 0xbe,
  0x03, 0x48, 0xce, 0xbe, 0x84, 0x0f, 0x9c, 0x3f, 0x12, 0x6d, 0x2e, 0xc0, 0x9b, 0xf5, 0x10, 0x3f,
  0x46, 0x2f, 0xdf, 0xbe, 0xbe, 0xbd, 0x01, 0xbe, 0xe9, 0xd4, 0x70, 0x3e, 0x37, 0xdb, 0x9f, 0x3d,
  0xbc, 0x56, 0xad, 0x3e, 0xcd, 0xf9, 0x33, 0x3f, 0x24, 0xe5, 0xf2, 0xbf, 0x59, 0x71, 0x07, 0x3f,
  0x25, 0x91, 0x92, 0x3e, 0x48, 0xdd, 0xfa, 0xbe, 0xac, 0x23, 0xd5, 0x3e, 0xbe, 0xc9, 0x23, 0x3f,
  0x80, 0x40, 0xcc, 0x3e, 0x55, 0x2a, 0xa0, 0x3e, 0x45, 0x01, 0xfd, 0xbf, 0xd0, 0xd0, 0x8f, 0x3e,
  0xc7, 0xfa, 0x07, 0xc0, 0x95, 0x54, 0x33, 0x3f, 0x7a, 0xd1, 0xcb, 0xbe, 0xe3, 0x64, 0x99, 0xbe,
  0xcc, 0x50, 0xf9, 0x3e, 0x21, 0x14, 0x58, 0x3f, 0xd6, 0x36, 0x81, 0xc0, 0x0b, 0xfa, 0x8f, 0x3e,
  0x83, 0xb6, 0x74, 0xbf, 0x91, 0x8a, 0xce, 0x3c, 0x0a, 0x32, 0xe9, 0xbe, 0xfd, 0xbe, 0xe8, 0x3e,
  0x37, 0x6a, 0x8f, 0x3e, 0xe4, 0xc3, 0x5d, 0x3e, 0xf2, 0x56, 0x09, 0xbf, 0xc0, 0x40, 0x80, 0x3d,
  0xe9, 0x7e, 0x25, 0x3e, 0xaa, 0x5c, 0x4a, 0xbf, 0xb5, 0x2c, 0x0d, 0xbf, 0x8c, 0xfb, 0x0f, 0xbe,
  0x0d, 0x46, 0x39, 0x3f, 0xa3, 0xd3, 0x69, 0xbf, 0x59, 0xd1, 0xa6, 0x3f, 0x7c, 0xe6, 0xf3, 0xbe,
  0x65, 0x42, 0x13, 0x3f, 0x7f, 0xb4, 0xc5, 0xbf, 0xe0, 0x58, 0x14, 0xc0, 0x1c, 0x18, 0x83, 0xbf,
  0xc4, 0xec, 0x6c, 0xbf, 0xd1, 0xba, 0x2c, 0xbf, 0xd3, 0x81, 0x83, 0xbf, 0x74, 0x0e, 0xa3, 0xbf,
  0x58, 0xbd, 0xa2, 0x3e, 0xec, 0x57, 0x0e, 0xc0, 0xf3, 0xc5, 0xc6, 0xbf, 0xfe, 0xfa, 0x09, 0xc0,
  0x33, 0x58, 0x4c, 0xbf, 0x9f, 0xbd, 0x76, 0xbe, 0xf0, 0x94, 0x2d, 0xbf, 0x9d, 0x52, 0x56, 0xbf,
  0x6c, 0x91, 0x86, 0xbf, 0xfd, 0xc7, 0x30, 0xc0, 0xe5, 0xf5, 0x28, 0xc0, 0x45, 0x64, 0xc0, 0xbf,
  0x21, 0x29, 0xa9, 0xbf, 0x68, 0x89, 0x27, 0xbf, 0x41, 0x06, 0x13, 0xbf, 0xa8, 0xff, 0x85, 0xbd,
  0x12, 0x69, 0x32, 0xc0, 0xf6, 0x81, 0x78, 0xc0, 0xd8, 0x6c, 0x86, 0xbf, 0xf4, 0x53, 0x04, 0xc0,
  0x35, 0x86, 0xa9, 0xbf, 0x45, 0xe8, 0x91, 0xbc, 0xea, 0x17, 0xd0, 0xbf, 0x45, 0xa4, 0x40, 0xbf,
  0x5b, 0x92, 0x1d, 0xc0, 0x59, 0x9f, 0x9f, 0xc0, 0x45, 0xa5, 0x1f, 0xbf, 0x2e, 0xb6, 0x66, 0xbf,
  0x99, 0x27, 0xa4, 0xbf, 0x69, 0xc2, 0x7a, 0xc0, 0x6e, 0xa9, 0xba, 0xbf, 0x0c, 0x0f, 0x0e, 0xbf,
  0x2e, 0xd1, 0x13, 0xc0, 0xf1, 0x72, 0xa6, 0x3f, 0x53, 0xe9, 0x26, 0xc0, 0x9b, 0x2c, 0x8f, 0xbf,
  0xc4, 0x4d, 0x9a, 0xbf, 0x62, 0xe0, 0x80, 0xbe, 0x71, 0xab, 0x4d, 0xbe, 0x40, 0x7a, 0x1d, 0x3f,
  0x81, 0x56, 0x09, 0xbf, 0xb2, 0xee, 0x81, 0xbd, 0x2d, 0x00, 0xb9, 0xbe, 0x40, 0x65, 0xb8, 0xbe,
  0x9c, 0xa0, 0xd9, 0x3d, 0x3e, 0x0f, 0xdf, 0xbd, 0x34, 0x38, 0x10, 0xbf, 0xdc, 0x3a, 0x00, 0x3f,
  0xdc, 0xdf, 0xcd, 0xbe, 0xb6, 0x15, 0x4f, 0x3f, 0xb2, 0x59, 0xcd, 0x3f, 0x76, 0x01, 0x58, 0xbd,
  0x77, 0x58, 0x42, 0x3e, 0xd1, 0xbb, 0x97, 0xbe, 0xd0, 0x3a, 0xe4, 0xbf, 0x09, 0x6f, 0x34, 0x3f,
  0xe6, 0x14, 0x26, 0xbf, 0x33, 0xad, 0x3c, 0x3f, 0x97, 0x51, 0x92, 0x3f, 0x1c, 0xb0, 0xd0, 0xbc,
  0x17, 0x75, 0xa1, 0xbd, 0x5a, 0xd8, 0x57, 0xbe, 0x70, 0xa6, 0x86, 0x3f, 0x08, 0xdf, 0x85, 0x3e,
  0x8e, 0x99, 0x6e, 0x3f, 0xd2, 0x71, 0x54, 0xc0, 0x0f, 0xb1, 0x02, 0xc0, 0xc2, 0xfd, 0x58, 0x3e,
  0x1a, 0x08, 0x92, 0xbf, 0x23, 0x3a, 0x25, 0xc0, 0x3b, 0x53, 0xa1, 0x3f, 0x1e, 0x26, 0x15, 0x3d,
  0x15, 0xab, 0xbd, 0xbf, 0x55, 0x93, 0x07, 0xc0, 0x9b, 0xf4, 0x09, 0xc0, 0x7b, 0x2c, 0x3b, 0xc0,
  0x28, 0x81, 0x45, 0xbf, 0x06, 0x28, 0x9f, 0xbf, 0xaf, 0x0b, 0x16, 0xc0, 0xe7, 0xc0, 0x81, 0xbf,
  0xe8, 0x81, 0xd7, 0xbf, 0x05, 0xad, 0xf9, 0x3d, 0x40, 0x30, 0xd4, 0xbf, 0x48, 0xe2, 0x1a, 0xbf,
  0xea, 0x1e, 0xc8, 0x3e, 0xda, 0x44, 0x9b, 0xbf, 0xee, 0xc9, 0xf8, 0xbf, 0x78, 0x61, 0xde, 0x3e,
  0xb5, 0x15, 0x1e, 0xbf, 0x78, 0x22, 0xad, 0x3e, 0xd3, 0x94, 0x36, 0xbe, 0x23, 0x39, 0x44, 0xbf,
  0xd8, 0x9e, 0x0a, 0xbf, 0x31, 0xfa, 0x2c, 0x3f, 0xde, 0x22, 0xec, 0xbf, 0x6d, 0x65, 0x1e, 0xbf,
  0xe5, 0x88, 0x86, 0xc0, 0x05, 0x5f, 0x3c, 0x3d, 0xbe, 0xc1, 0x6a, 0xbe, 0x76, 0xb9, 0xf8, 0xbf,
  0x3b, 0x9a, 0xfa, 0x3e, 0x90, 0xed, 0x9c, 0x3e, 0x85, 0x7b, 0x71, 0xc0, 0x3c, 0x15, 0x09, 0xbf,
  0xc4, 0x0e, 0x5c, 0xbd, 0x87, 0x11, 0x0c, 0xbf, 0x59, 0x76, 0xce, 0x3e, 0xba, 0x6f, 0xe0, 0xbf,
  0x3d, 0x9e, 0x2b, 0xbe, 0x23, 0x08, 0x0e, 0x3f, 0xf5, 0x95, 0xca, 0xbf, 0xba, 0x7d, 0x6f, 0x3f,
  0x1d, 0x9d, 0x83, 0x3e, 0x20, 0x97, 0x1b, 0xbe, 0xfe, 0x5c, 0xf2, 0xbe, 0x20, 0x24, 0xc8, 0x3e,
  0x9b, 0x96, 0xbb, 0xbe, 0xfd, 0xa8, 0xb4, 0x3e, 0x60, 0xd1, 0xbe, 0xbe, 0x98, 0xc9, 0xae, 0xbf,
  0xf9, 0x25, 0x3b, 0xbe, 0xf3, 0xa0, 0x41, 0xbe, 0x76, 0x98, 0x99, 0x3e, 0x8b, 0xf6, 0x2c, 0x3f,
  0x3c, 0x21, 0x01, 0xc0, 0xa5, 0xae, 0x9c, 0xbf, 0xd9, 0xb5, 0xc4, 0x3e, 0xc9, 0x27, 0x02, 0xbf,
  0x60, 0xe7, 0x28, 0x3f, 0x0b, 0x8c, 0x52, 0xbe, 0x8f, 0x77, 0x14, 0xbf, 0x11, 0x9b, 0x4d, 0x3f,
  0xdc, 0xca, 0xa7, 0xbc, 0xf3, 0xca, 0xa5, 0xbf, 0xb2, 0x1c, 0xbe, 0xbf, 0x13, 0x17, 0xbb, 0xbf,
  0xd9, 0xd5, 0xc9, 0xbf, 0xb3, 0x7b, 0x2d, 0xc0, 0xe1, 0xc9, 0xc1, 0xbf, 0xdd, 0x46, 0xe7, 0xbf,
  0x60, 0xac, 0x62, 0xc0, 0xbc, 0xe2, 0xe1, 0xbf, 0xe4, 0x8a, 0x4b, 0xbf, 0x8d, 0xe0, 0x2e, 0xc0,
  0x6c, 0x81, 0xb3, 0xbf, 0x36, 0xd7, 0x2e, 0xc0, 0x00, 0x92, 0x67, 0xbf, 0xc5, 0x0b, 0x34, 0xbe,
  0x9f, 0x10, 0x29, 0xbe, 0x35, 0x62, 0x5f, 0x3f, 0xf1, 0x2d, 0x2d, 0xc0, 0xb2, 0xed, 0x41, 0x3f,
  0x8c, 0x84, 0x0c, 0xc0, 0xe7, 0x6d, 0x77, 0x3f, 0x51, 0xbf, 0x32, 0x40, 0x2b, 0xb1, 0xbc, 0x3d,
  0x4f, 0xfb, 0x83, 0xbd, 0xde, 0x83, 0xcb, 0xbf, 0xca, 0x1d, 0xf2, 0xbe, 0x68, 0xe7, 0xc5, 0xbf,
  0xaf, 0x57, 0x23, 0xbe, 0x70, 0x59, 0xdb, 0xbf, 0x66, 0xab, 0x0a, 0xc0, 0xe9, 0x54, 0x90, 0xbf,
  0x47, 0xcf, 0x52, 0xbe, 0x99, 0xf3, 0xfd, 0x3e, 0x01, 0xbc, 0xcc, 0xbf, 0x4d, 0x31, 0x99, 0xbf,
  0x05, 0x97, 0xd5, 0xbf, 0x77, 0x08, 0x8e, 0xbf, 0x58, 0x9c, 0x60, 0xbf, 0x07, 0x8d, 0x03, 0x3d,
  0x68, 0xc7, 0xaf, 0xbd, 0x5b, 0x71, 0x19, 0xbe, 0x64, 0x54, 0xca, 0xbf, 0x77, 0xe0, 0x4c, 0x3f,
  0xf9, 0x2a, 0xe8, 0xbf, 0x67, 0x35, 0x7a, 0x3f, 0x00, 0x8d, 0xb1, 0x3f, 0x66, 0x50, 0x89, 0xbe,
  0xfc, 0x6d, 0xd6, 0x3e, 0x76, 0x4b, 0xcb, 0xbe, 0x38, 0x6b, 0x08, 0xbe, 0x29, 0x14, 0x1a, 0xbf,
  0x4e, 0x97, 0x47, 0x3e, 0x4c, 0xf1, 0x87, 0xbf, 0xee, 0x36, 0x3b, 0xc0, 0x55, 0x65, 0xb6, 0x3d,
  0x14, 0x79, 0xda, 0xbe, 0xec, 0x9d, 0x67, 0x3e, 0xe4, 0x48, 0x5a, 0xbf, 0xe1, 0x59, 0xac, 0xbe,
  0x74, 0xc6, 0xb1, 0xbe, 0x11, 0x6d, 0x95, 0xbf, 0x52, 0x4e, 0x82, 0xbf, 0xc1, 0xb0, 0xe7, 0xbe,
  0xa5, 0x74, 0xf4, 0x3c, 0x7a, 0x46, 0xd5, 0x3e, 0x31, 0x46, 0x1a, 0xbe, 0x72, 0xe5, 0x60, 0xbd,
  0xf6, 0x77, 0x40, 0x3f, 0xc4, 0x5b, 0x0f, 0x3e, 0x7e, 0x53, 0x57, 0x3f, 0x60, 0x30, 0x08, 0xbf,
  0x29, 0xcd, 0x06, 0x3f, 0x83, 0x97, 0x7b, 0x3e, 0x02, 0x16, 0xad, 0xbf, 0xae, 0x46, 0x1f, 0xbf,
  0x0e, 0x23, 0xcd, 0xbf, 0x3d, 0xd3, 0x0e, 0xbf, 0x53, 0xec, 0x5f, 0xbf, 0xf0, 0x0a, 0xba, 0xbf,
  0x24, 0x2a, 0x96, 0xbe, 0x20, 0x86, 0x40, 0x3f, 0x38, 0xb1, 0x70, 0xbf, 0x46, 0xb3, 0xc6, 0xbf,
  0x2f, 0x02, 0x5e, 0xbf, 0x15, 0x88, 0xc9, 0xbf, 0xd1, 0x7e, 0x93, 0xbf, 0x29, 0x8f, 0x0e, 0xc0,
  0xfc, 0x1c, 0xae, 0xbf, 0x1f, 0x39, 0xa6, 0x3f, 0x01, 0x7b, 0x5b, 0xbe, 0xba, 0x31, 0xef, 0xbf,
  0x1b, 0x61, 0xf2, 0xbf, 0xe1, 0x9a, 0x06, 0xbf, 0xb7, 0x73, 0xe5, 0xbe, 0xd9, 0x26, 0xbb, 0xbf,
  0xd0, 0x41, 0x75, 0xbf, 0xf4, 0xe4, 0xec, 0xbf, 0xb7, 0xc4, 0x06, 0xc0, 0xa6, 0x0b, 0xc1, 0xbe,
  0xdd, 0xaa, 0xfc, 0x3e, 0xfb, 0x18, 0x9f, 0x3d, 0x03, 0x5f, 0xb7, 0xbe, 0xb2, 0x50, 0x11, 0x3f,
  0x17, 0xe5, 0xe5, 0xbe, 0xd6, 0x67, 0x38, 0xc0, 0x01, 0xd0, 0x69, 0x3f, 0xb8, 0x9b, 0x22, 0xbf,
  0xe5, 0x51, 0x58, 0xbe, 0x98, 0x34, 0xb5, 0xbf, 0x04, 0xae, 0xe8, 0xbe, 0xa6, 0x13, 0x1b, 0x3f,
  0x42, 0xeb, 0x6c, 0xbf, 0x0e, 0x6b, 0x01, 0xbf, 0x83, 0xac, 0xab, 0xbe, 0x55, 0xf7, 0x15, 0xbf,
  0x12, 0x3e, 0x15, 0x3e, 0x12, 0x76, 0x4a, 0xbf, 0x08, 0xd0, 0x46, 0xbf, 0x8e, 0x99, 0xb3, 0x3e,
  0x55, 0x75, 0xa9, 0xbe, 0x92, 0xe7, 0x96, 0xbd, 0xad, 0xba, 0x2f, 0xc0, 0xeb, 0xa5, 0x92, 0xbd,
  0xed, 0xd9, 0x82, 0x3f, 0x9a, 0x75, 0x5b, 0xc0, 0xab, 0x1c, 0x54, 0x3f, 0x98, 0x30, 0x42, 0xc0,
  0xd6, 0xc0, 0x78, 0xbf, 0x08, 0x03, 0xd1, 0xbe, 0xbc, 0xba, 0xf2, 0x3d, 0x0d, 0xa2, 0x2f, 0xbe,
  0x1c, 0xbb, 0xb4, 0x3e, 0x0d, 0x15, 0x81, 0xc0, 0xfb, 0x59, 0x9f, 0x3f, 0xf4, 0x6b, 0x12, 0xc0,
  0x9f, 0x1a, 0x95, 0xbf, 0x7f, 0x61, 0xec, 0x3e, 0x18, 0x45, 0x65, 0xbe, 0x67, 0xad, 0xfa, 0x3e,
  0x9a, 0x35, 0x1b, 0x3f, 0x8f, 0xc7, 0x9c, 0xc0, 0xee, 0xff, 0x9f, 0x3f, 0xd1, 0x35, 0x54, 0xc0,
  0xa7, 0x66, 0x72, 0xbf, 0xcf, 0x07, 0x94, 0x3f, 0x5f, 0x27, 0x21, 0xbe, 0x43, 0x34, 0x53, 0xbf,
  0x1b, 0xfe, 0xbb, 0x3f, 0x55, 0x9b, 0x51, 0xbf, 0xd7, 0xd7, 0xf3, 0xbd, 0x3f, 0x7c, 0xcd, 0xbe,
  0xd9, 0xb7, 0x2a, 0xbf, 0x73, 0x3b, 0x44, 0x3f, 0xe5, 0xaa, 0x31, 0xbf, 0xa5, 0x08, 0x56, 0xbf,
  0x7f, 0x02, 0xcb, 0x3f, 0x99, 0x8a, 0xba, 0x3e, 0x00, 0xd5, 0xa0, 0xbf, 0x3a, 0x49, 0x92, 0x3d,
  0x63, 0x19, 0x46, 0xbf, 0xf0, 0xe0, 0x30, 0x3f, 0x57, 0x0f, 0x9b, 0xbe, 0x7f, 0xb5, 0x09, 0xbf,
  0x26, 0xa5, 0xab, 0x3f, 0xe5, 0x69, 0x82, 0xbf, 0x85, 0x6e, 0x8c, 0xbe, 0xb1, 0xc6, 0xe3, 0xbd,
  0xce, 0xda, 0xa5, 0xbf, 0x43, 0xdd, 0xeb, 0x3e, 0xe3, 0x00, 0x2d, 0x3e, 0xbb, 0xf5, 0x41, 0x3f,
  0xdd, 0xd4, 0x68, 0xbf, 0xa6, 0xa8, 0x29, 0x3f, 0x65, 0xd9, 0x20, 0x3f, 0x52, 0x52, 0xc2, 0xbe,
  0xaf, 0x27, 0x8e, 0xbf, 0xac, 0xae, 0x32, 0x3f, 0x1b, 0xf3, 0x4b, 0x3f, 0x71, 0x81, 0xa1, 0x3e,
  0xf1, 0xc6, 0x92, 0x3d, 0xd0, 0xa1, 0x29, 0x3f, 0x94, 0x5d, 0xed, 0x3e, 0x42, 0x61, 0x8d, 0xbe,
  0x48, 0xca, 0xc3, 0xbf, 0xd6, 0x57, 0xcc, 0x3e, 0xae, 0x69, 0x53, 0x3e, 0x86, 0x49, 0x29, 0xbf,
  0x4d, 0x73, 0xff, 0xbe, 0x15, 0x4a, 0x24, 0x3f, 0xa3, 0x18, 0x13, 0x3f, 0x3d, 0x05, 0x08, 0xbf,
  0xa5, 0x75, 0x65, 0xbf, 0x75, 0x99, 0x45, 0x3f, 0x51, 0x03, 0x37, 0x3e, 0xa9, 0xb6, 0x56, 0xbd,
  0x24, 0x25, 0xcd, 0xbf, 0x80, 0x9a, 0xd9, 0x3f, 0xff, 0x05, 0x66, 0x3f, 0xbe, 0xe4, 0x84, 0x3f,
  0xa3, 0x0a, 0x24, 0xbf, 0xf9, 0xe2, 0xf9, 0x3e, 0x86, 0xd1, 0x1f, 0x3e, 0x25, 0x26, 0x86, 0xbe,
  0x59, 0x79, 0x84, 0xbf, 0x0a, 0x0a, 0x3f, 0x3f, 0xd1, 0x55, 0x18, 0xbb, 0x36, 0x99, 0x32, 0x3f,
  0xf6, 0xba, 0x86, 0xbf, 0xb4, 0x4f, 0x69, 0xbf, 0x3d, 0x19, 0xcb, 0x3e, 0x1e, 0x8d, 0x8f, 0xbf,
  0x28, 0x3f, 0xfe, 0x3a, 0xa4, 0x6a, 0xd8, 0x3f, 0xba, 0x90, 0x0a, 0x3f, 0xdf, 0x30, 0xa3, 0x3f,
  0xd1, 0x69, 0x40, 0xbf, 0x9d, 0x69, 0x07, 0x3f, 0x5e, 0x69, 0x13, 0x3f, 0x1d, 0x54, 0x27, 0x3d,
  0xfe, 0x47, 0x5f, 0x3e, 0xcc, 0x5e, 0x0a, 0xbf, 0x84, 0xbb, 0x29, 0xbf, 0x3b, 0x41, 0x2b, 0xbe,
  0x79, 0x6b, 0x83, 0x3d, 0xce, 0x2b, 0xcb, 0x3e, 0xd3, 0x33, 0x2e, 0x3f, 0x4b, 0xbf, 0x24, 0xbe,
  0x8c, 0x63, 0x16, 0x3f, 0x24, 0x0b, 0xdc, 0xbe, 0xfc, 0x18, 0x72, 0x3e, 0x37, 0x4a, 0xbd, 0xbd,
  0x2a, 0xfc, 0xa9, 0xbb, 0xb5, 0x9b, 0x2e, 0x3f, 0xba, 0x1d, 0x82, 0x3f, 0xae, 0xe1, 0x8d, 0xbe,
  0x39, 0x27, 0x23, 0x3f, 0x2c, 0x17, 0x1f, 0xbf, 0xbf, 0x4e, 0x12, 0xbf, 0xfe, 0x86, 0x2a, 0x3d,
  0x03, 0x4d, 0x38, 0xbe, 0x57, 0xd7, 0x09, 0x3e, 0x8f, 0x10, 0xf3, 0xbb, 0x9d, 0xd9, 0x7c, 0xbd,
  0xf8, 0x48, 0x83, 0x3e, 0xad, 0xc9, 0x37, 0xbe, 0xea, 0xf4, 0xee, 0x3e, 0x9b, 0xf9, 0x8f, 0xbe,
  0x4d, 0xd7, 0x80, 0xbd, 0x19, 0x72, 0x29, 0x3e, 0x0a, 0x54, 0x66, 0xbd, 0x64, 0xab, 0x33, 0x3f,
  0x86, 0x2c, 0x74, 0xbd, 0x10, 0x1e, 0xca, 0x3c, 0x1f, 0x6a, 0x05, 0x3f, 0x5a, 0x08, 0x36, 0x3d,
  0x19, 0x3f, 0xde, 0xbe, 0x47, 0x51, 0x25, 0x3e, 0x93, 0x5a, 0x52, 0x3e, 0xe8, 0x0b, 0x58, 0xbc,
  0x17, 0x23, 0x2f, 0x3f, 0x92, 0x6c, 0x9a, 0xbc, 0x8e, 0x91, 0xee, 0xbc, 0x66, 0xa6, 0xab, 0x3e,
  0x88, 0x46, 0xa7, 0xbe, 0x6c, 0x29, 0x4a, 0xbf, 0x7c, 0xfb, 0xf9, 0xbe, 0xa6, 0x72, 0x56, 0xc0,
  0xba, 0xeb, 0x0d, 0xbf, 0x9a, 0x9a, 0xd0, 0xc0, 0xc5, 0x4a, 0xbb, 0xbe, 0x52, 0x6d, 0xc3, 0xc0,
  0x1e, 0xd8, 0x7d, 0xc0, 0x88, 0x42, 0x39, 0xbf, 0x21, 0x10, 0xd2, 0xbe, 0x18, 0x87, 0xdf, 0xbf,
  0xa1, 0x64, 0xda, 0xbe, 0x27, 0x0c, 0xcf, 0xc0, 0xa9, 0xf1, 0x92, 0xbf, 0xd7, 0x47, 0xee, 0xc0,
  0x2e, 0x61, 0x23, 0xc0, 0xb8, 0x23, 0x2f, 0xbf, 0x78, 0xfb, 0xf3, 0xbe, 0x26, 0x7d, 0xb4, 0xbf,
  0x49, 0x3f, 0x69, 0xbe, 0x8d, 0xc6, 0xef, 0xc0, 0xf6, 0x1e, 0xc8, 0xbe, 0xf7, 0x2a, 0x08, 0xc1,
  0xa0, 0x7f, 0xb2, 0xc0, 0xcc, 0x9e, 0x09, 0xc0, 0xe4, 0x88, 0xd5, 0xbe, 0xcd, 0xe5, 0x04, 0xc0,
  0x04, 0x28, 0xd1, 0xbe, 0x9c, 0x1e, 0xbf, 0xbf, 0xcc, 0xf1, 0xd6, 0xbf, 0xec, 0x54, 0x7c, 0xbf,
  0xd3, 0x9a, 0x49, 0xbf, 0x89, 0x3a, 0xa5, 0xbf, 0x0a, 0x7e, 0xd0, 0xbe, 0xe9, 0xb1, 0x67, 0xbf,
  0x42, 0xcb, 0x21, 0xbf, 0x4c, 0x26, 0xfe, 0xbf, 0x83, 0x17, 0x98, 0xbf, 0x2f, 0xa0, 0xd2, 0xbf,
  0xd3, 0xc0, 0x73, 0xbf, 0x2b, 0x4a, 0x93, 0xbf, 0x75, 0xbe, 0x4e, 0xbf, 0x3e, 0x93, 0x3c, 0xbf,
  0xb7, 0x65, 0x06, 0xc0, 0x4e, 0x70, 0xef, 0xbf, 0x1b, 0x1c, 0x27, 0xc0, 0xe2, 0xd5, 0x13, 0xc0,
  0xd8, 0x9a, 0xdc, 0xbf, 0x87, 0x24, 0xbb, 0xbf, 0x2e, 0xbe, 0xbd, 0xbf, 0x1f, 0x15, 0x81, 0xbf,
  0xa9, 0x49, 0x01, 0xc0, 0xed, 0x4e, 0xc0, 0xbe, 0x40, 0x50, 0xdd, 0xc0, 0xcf, 0x13, 0x73, 0xbf,
  0x56, 0xa9, 0xcc, 0xc0, 0x4b, 0xff, 0x73, 0xc0, 0x06, 0xae, 0x4e, 0xc0, 0x51, 0x0b, 0x09, 0xbe,
  0xfc, 0x35, 0x3f, 0xc0, 0x42, 0xc6, 0x6d, 0xc0, 0xa3, 0xe5, 0xad, 0xbf, 0x77, 0xd3, 0x39, 0xbf,
  0xb1, 0xe1, 0x91, 0xc0, 0x3e, 0xf0, 0x8d, 0xc0, 0x14, 0xa1, 0x25, 0xc0, 0xba, 0x35, 0x3a, 0xbd,
  0xe2, 0x20, 0xaf, 0xbf, 0x19, 0x7a, 0xdc, 0xbe, 0x95, 0x07, 0xa2, 0xc0, 0x86, 0x96, 0x9f, 0xbe,
  0x47, 0x06, 0xd3, 0xc0, 0x41, 0xf2, 0x3c, 0xbe, 0xb4, 0xff, 0x07, 0xbe, 0x2a, 0xc0, 0xf8, 0xbd,
  0xc6, 0x45, 0x79, 0x3e, 0x81, 0x69, 0x41, 0xbf, 0x79, 0xa5, 0x92, 0x3e, 0x83, 0x54, 0x55, 0x3f,
  0x2c, 0x85, 0x0b, 0x3f, 0xbe, 0x50, 0x0a, 0x3e, 0xe1, 0x40, 0x93, 0xbf, 0x71, 0xdf, 0x1c, 0x3e,
  0xae, 0xd9, 0x83, 0x3d, 0x63, 0xce, 0xd9, 0xbe, 0x8e, 0x20, 0x0f, 0xbe, 0x7e, 0x29, 0xec, 0x3e,
  0x21, 0x61, 0xcd, 0x3d, 0x8c, 0x79, 0x95, 0x3d, 0x62, 0xcd, 0xaa, 0xbe, 0x57, 0x9b, 0x6b, 0x3e,
  0x20, 0xab, 0x92, 0x3e, 0x1a, 0x20, 0x2b, 0xbc, 0x0d, 0xf6, 0xf3, 0xbd, 0x02, 0x67, 0x60, 0x3f,
  0x70, 0x35, 0xf2, 0x3e, 0x14, 0x0a, 0xc3, 0x3f, 0xa7, 0x1f, 0xa8, 0xbd, 0x52, 0x3d, 0x87, 0xbe,
  0x90, 0xc8, 0x21, 0x3f, 0x9f, 0x17, 0x04, 0xbf, 0x39, 0x67, 0x69, 0xc0, 0xcc, 0x90, 0xb4, 0x3e,
  0x10, 0x08, 0x07, 0xbf, 0xcc, 0xf9, 0xd5, 0x3e, 0x0f, 0x3b, 0x1f, 0x3f, 0xcf, 0x88, 0xf8, 0xbe,
  0x26, 0x0a, 0x3a, 0x3f, 0xf0, 0x64, 0x05, 0xc0, 0x21, 0x31, 0x9e, 0xc0, 0x06, 0x3d, 0x0e, 0xbe,
  0x59, 0x08, 0x0c, 0xbf, 0x04, 0xf8, 0xe7, 0xbe, 0x5a, 0x84, 0x57, 0x3f, 0x23, 0xef, 0x0d, 0xbf,
  0x27, 0x62, 0x6e, 0x3f, 0x97, 0xf8, 0x9f, 0xbf, 0x68, 0x8d, 0xf6, 0xbf, 0xc3, 0xc0, 0x85, 0x3e,
  0xc0, 0x46, 0x13, 0x3e, 0x7b, 0xa5, 0x43, 0x3f, 0x54, 0x3c, 0x13, 0xbc, 0xf7, 0xb4, 0xa1, 0xbd,
  0x1d, 0x69, 0x08, 0x3f, 0x65, 0x85, 0x47, 0x3f, 0x2d, 0xfb, 0x46, 0xc0, 0x86, 0x16, 0x75, 0x3e,
  0x2a, 0xce, 0xed, 0xbe, 0x1c, 0xfa, 0x80, 0x3e, 0xd7, 0x19, 0x38, 0x3f, 0x4e, 0x28, 0xfe, 0x3b,
  0x68, 0xc2, 0x2a, 0x3f, 0x86, 0xf3, 0xf6, 0x3e, 0xd1, 0xd8, 0x53, 0xc0, 0x4f, 0xf1, 0x52, 0xbd,
  0x97, 0x12, 0x85, 0xbe, 0xe9, 0x01, 0xf3, 0x3d, 0x91, 0x0c, 0x08, 0x3f, 0x26, 0xb7, 0x58, 0xbe,
  0xb4, 0x26, 0xa3, 0x3e, 0x28, 0x5d, 0x68, 0xbe, 0x4f, 0x7b, 0x67, 0xc0, 0xed, 0xd1, 0x80, 0xbd,
  0x1e, 0xb3, 0xb9, 0x3e, 0xce, 0xe5, 0xca, 0x3e, 0xcb, 0xb2, 0x9c, 0x3e, 0xa6, 0xe5, 0x78, 0xbe,
  0xc2, 0x33, 0x8d, 0x3f, 0xbc, 0x07, 0x07, 0x40, 0xb2, 0x2c, 0x6b, 0xc0, 0x12, 0x5e, 0xd5, 0x3c,
  0xee, 0x29, 0x67, 0xbf, 0xd6, 0x65, 0xab, 0x3d, 0x40, 0x17, 0x6f, 0xba, 0x7f, 0xa6, 0x56, 0xbd,
  0x5b, 0x3b, 0x5f, 0x3f, 0x8b, 0xa5, 0xb1, 0x3f, 0x20, 0x50, 0x48, 0xc0, 0x4c, 0xbb, 0x9e, 0xbd,
  0x26, 0x13, 0x54, 0xbf, 0x87, 0xe4, 0xcc, 0x3e, 0xae, 0x6f, 0x0a, 0xbd, 0x8b, 0x7a, 0x0f, 0xbc,
  0xc1, 0x63, 0x25, 0x3f, 0x1a, 0xaf, 0x91, 0x3f, 0x92, 0x43, 0x5c, 0xc0, 0x77, 0x1f, 0xd8, 0x3d,
  0xef, 0x5e, 0xd0, 0xbe, 0x49, 0x5c, 0xa5, 0xbf, 0xcc, 0x55, 0xc9, 0xbf, 0xa5, 0x69, 0x2f, 0xbe,
  0x9b, 0x94, 0x0f, 0xc0, 0x04, 0x8f, 0x00, 0xc0, 0x51, 0x09, 0x92, 0x3f, 0x60, 0xc6, 0xbf, 0xbf,
  0x09, 0xc1, 0xe2, 0xbf, 0x48, 0x89, 0x00, 0xbf, 0x05, 0xf2, 0x75, 0xbd, 0x68, 0xf5, 0x57, 0xbf,
  0x4a, 0xbd, 0x15, 0xc0, 0x8d, 0xf2, 0xb6, 0xbf, 0x43, 0xac, 0x84, 0xbf, 0x00, 0xc2, 0x0f, 0xc0,
  0x32, 0xf9, 0x88, 0xbe, 0x4a, 0x36, 0xf3, 0xbf, 0xd2, 0xb7, 0x0f, 0xbf, 0xb2, 0x09, 0x41, 0xc0,
  0xd3, 0x25, 0x1a, 0xc0, 0x58, 0x69, 0x5e, 0xbf, 0x93, 0x43, 0xc0, 0x3f, 0x85, 0xf7, 0x14, 0xc0,
  0x9b, 0xd3, 0x90, 0x3e, 0x1d, 0x2e, 0x03, 0xc1, 0xa2, 0x1f, 0x05, 0x3f, 0x76, 0x0a, 0x85, 0xbf,
  0x8f, 0xac, 0xac, 0xbf, 0x92, 0xa8, 0xa3, 0xc0, 0xb7, 0x0c, 0xb1, 0xbf, 0x51, 0x76, 0x0b, 0xbf,
  0x5a, 0xfe, 0xff, 0xc0, 0x05, 0xe9, 0x2c, 0xbe, 0xa7, 0x62, 0xa5, 0xc0, 0x66, 0x32, 0x1b, 0xc0,
  0xbe, 0xf3, 0x96, 0xbf, 0xf3, 0x01, 0xd4, 0xc0, 0xef, 0xc3, 0xcf, 0xc0, 0x5c, 0x81, 0xe7, 0x3c,
  0x44, 0xfd, 0xf8, 0xc0, 0x33, 0x95, 0xad, 0xc0, 0x6b, 0x72, 0xc1, 0xbf, 0x5a, 0xe0, 0x93, 0xbf,
  0x0b, 0x83, 0xc6, 0xbf, 0xd4, 0x5e, 0xeb, 0xc0, 0x04, 0xfc, 0x52, 0x3e, 0xf5, 0x63, 0x3a, 0xbf,
  0x02, 0xc3, 0xe5, 0xc0, 0x83, 0x21, 0x41, 0x3e, 0x0b, 0x80, 0x38, 0x3f, 0x27, 0xff, 0xc2, 0xbe,
  0xba, 0xa9, 0x49, 0xba, 0x3a, 0x01, 0xe4, 0x3e, 0x2a, 0x22, 0xca, 0xbe, 0x67, 0xd9, 0xce, 0xbd,
  0xba, 0xcd, 0x45, 0xbf, 0xc3, 0x49, 0x8e, 0x3e, 0x67, 0x22, 0x1b, 0x3f, 0x29, 0xe1, 0x52, 0x3f,
  0xcf, 0x09, 0x41, 0x3e, 0x6d, 0x43, 0xf7, 0x3e, 0xdd, 0x07, 0x92, 0xbe, 0xbd, 0x6b, 0x26, 0x3f,
  0xda, 0x84, 0x2d, 0xbf, 0x8e, 0x50, 0xc4, 0x3d, 0x1c, 0x9f, 0x8d, 0x3e, 0xb3, 0xdd, 0x0a, 0x3f,
  0x18, 0x83, 0x61, 0x3e, 0xd6, 0x1d, 0xa5, 0x3e, 0x35, 0xf2, 0x00, 0xbf, 0x75, 0xee, 0x99, 0x3d,
  0xdf, 0xed, 0xbc, 0xbf, 0x51, 0x47, 0xe4, 0xbf, 0xf4, 0x68, 0x39, 0xbf, 0x94, 0xa1, 0xa0, 0xbc,
  0xfa, 0x50, 0xa1, 0xbf, 0xfe, 0x60, 0x8e, 0xbf, 0x58, 0xc6, 0xb2, 0x3e, 0x8d, 0x26, 0xb2, 0xbf,
  0xbe, 0xe3, 0x09, 0xc0, 0xbb, 0x8c, 0x25, 0xc0, 0xd5, 0xa0, 0xbb, 0xbf, 0x95, 0x5d, 0x24, 0xc0,
  0x1b, 0x6c, 0x10, 0xc0, 0xd5, 0x81, 0x25, 0xc0, 0x40, 0x63, 0xbf, 0xbf, 0xdd, 0x4d, 0x0a, 0xc0,
  0xec, 0xbd, 0x1e, 0xc0, 0xb7, 0x17, 0xf0, 0x3d, 0x38, 0xf0, 0xde, 0xbf, 0x10, 0x6f, 0x74, 0xbf,
  0xc9, 0x8c, 0x56, 0xbf, 0xd8, 0xfb, 0xd4, 0x3f, 0x61, 0x84, 0x2e, 0xbf, 0xcc, 0x5b, 0x8d, 0xbf,
  0x5a, 0x66, 0xa1, 0xbf, 0xe5, 0xf3, 0x60, 0xc0, 0x7c, 0x6c, 0x91, 0x3f, 0xf6, 0xf4, 0xfd, 0xbe,
  0x77, 0xd3, 0x6e, 0xbf, 0x8a, 0x94, 0x30, 0x3f, 0x14, 0xd9, 0xf3, 0x3d, 0x3f, 0xa9, 0x7a, 0xbf,
  0x7a, 0xfe, 0xba, 0xbf, 0x3e, 0x59, 0x44, 0xc0, 0x79, 0xd8, 0x81, 0xbf, 0xcc, 0x4c, 0x12, 0xbf,
  0xe0, 0x5e, 0xfa, 0xbb, 0x16, 0x62, 0x55, 0xbf, 0x29, 0x2c, 0xad, 0x3f, 0xac, 0xf5, 0xc1, 0xbf,
  0xc9, 0x05, 0x6d, 0xbf, 0xdd, 0xc2, 0xfd, 0x3d, 0x87, 0x18, 0x7d, 0x3b, 0xf6, 0xcf, 0xc2, 0xbf,
  0xc8, 0x06, 0xab, 0xbf, 0x03, 0xd3, 0xea, 0xbf, 0xc5, 0x81, 0xe1, 0x3c, 0xff, 0xe9, 0xff, 0xbf,
  0x5f, 0x03, 0x1c, 0x3f, 0x75, 0x95, 0x91, 0xbe, 0x56, 0x40, 0x1e, 0xbf, 0xdf, 0x84, 0x10, 0x3f,
  0xfd, 0x25, 0xc5, 0x39, 0x6d, 0x94, 0x39, 0x3f, 0x1d, 0x75, 0xb2, 0x3f, 0x85, 0x08, 0xd0, 0xbc,
  0x17, 0xc9, 0xc3, 0x3e, 0x7e, 0x9b, 0xe1, 0xbe, 0x83, 0x96, 0xf8, 0xbf, 0x93, 0x24, 0x7d, 0x3e,
  0x39, 0x12, 0x92, 0xbe, 0xad, 0xd1, 0xe7, 0xbe, 0x10, 0x51, 0x4c, 0xbf, 0x44, 0x6a, 0xcb, 0x3e,
  0xce, 0xf2, 0xed, 0xbf, 0xfe, 0x2a, 0x13, 0xbf, 0x1e, 0xb0, 0x3e, 0xc0, 0x54, 0x9d, 0x98, 0xbd,
  0x16, 0xcb, 0x04, 0xc0, 0x12, 0xeb, 0x93, 0xbe, 0x7a, 0xcd, 0x0c, 0xbf, 0x12, 0x2b, 0x6c, 0xbf,
  0xd6, 0x7e, 0x58, 0x3f, 0xdc, 0x18, 0xd5, 0x3f, 0x0d, 0xb2, 0x21, 0xc0, 0xfb, 0x1b, 0x59, 0xbd,
  0x27, 0x31, 0xa9, 0x3e, 0x80, 0x82, 0x32, 0x3e, 0xc8, 0x22, 0xb6, 0xbf, 0xc9, 0x08, 0x40, 0xbe,
  0xa2, 0x7b, 0x68, 0x3f, 0x33, 0x2e, 0xff, 0x3d, 0x6c, 0x42, 0x8f, 0x3e, 0x34, 0xa5, 0x91, 0x3e,
  0x68, 0x29, 0x2c, 0x3f, 0xbe, 0x0c, 0x46, 0xbe, 0x63, 0x8c, 0x3b, 0x3f, 0xf7, 0xaa, 0x83, 0xbe,
  0x14, 0x84, 0xc3, 0x3e, 0x63, 0x90, 0x9f, 0xc0, 0xde, 0x99, 0xc0, 0x3f, 0x40, 0x2f, 0xb6, 0xbe,
  0xac, 0x4d, 0x23, 0x3f, 0xdd, 0xa1, 0xe2, 0xbe, 0xad, 0xf5, 0x92, 0xbf, 0x6e, 0x9f, 0x17, 0xbf,
  0xe3, 0xf7, 0x80, 0xbd, 0x7a, 0xde, 0x44, 0x3f, 0xd7, 0x5e, 0x92, 0xbf, 0x47, 0x94, 0x68, 0x3e,
  0x9d, 0x3c, 0x03, 0xc0, 0xd1, 0xb5, 0x3b, 0x3f, 0x42, 0x85, 0x6d, 0x3e, 0x6d, 0x6a, 0xfc, 0xbf,
  0x38, 0x63, 0xce, 0xbc, 0x90, 0xd5, 0x7b, 0xbe, 0x33, 0xb9, 0xec, 0x3e, 0x0e, 0x1b, 0x30, 0xbf,
  0x6f, 0x90, 0xc0, 0x3d, 0x85, 0xee, 0x66, 0xbf, 0x66, 0x44, 0xa2, 0x3e, 0x02, 0xbf, 0x39, 0xc0,
  0xb5, 0xac, 0x71, 0x3e, 0xb3, 0x25, 0x73, 0xc0, 0xe3, 0x1d, 0x8c, 0x3f, 0xca, 0xe3, 0x9f, 0xbf,
  0x13, 0xb6, 0x0d, 0x3f, 0x34, 0xb6, 0x97, 0xbe, 0xa0, 0x89, 0x89, 0x3f, 0xe8, 0xbb, 0x81, 0x3e,
  0x73, 0x73, 0xe3, 0x3e, 0xb0, 0x5f, 0xfe, 0x3e, 0xd3, 0x17, 0x5b, 0xbf, 0x0e, 0x60, 0x21, 0xbe,
  0xd9, 0x4a, 0xf8, 0xbe, 0xa9, 0x5f, 0x62, 0x3e, 0x39, 0xbf, 0x10, 0x3f, 0x94, 0x33, 0x2f, 0xbf,
  0x97, 0xf6, 0x32, 0xbf, 0x13, 0x76, 0x55, 0xbf, 0x40, 0x04, 0xbe, 0xbe, 0xa5, 0xad, 0xbd, 0xbf,
  0x5b, 0x5e, 0x58, 0xc0, 0x63, 0x3a, 0x05, 0xc0, 0xc0, 0xc6, 0x4d, 0xc0, 0x94, 0x0c, 0x02, 0xc0,
  0x8d, 0x07, 0xfd, 0xbe, 0x12, 0x74, 0xe4, 0xbf, 0xee, 0x48, 0x68, 0x3e, 0x57, 0x54, 0x83, 0xc0,
  0xbb, 0x42, 0x16, 0x3f, 0xe8, 0x83, 0x81, 0x3e, 0xaa, 0x50, 0xfe, 0x3e, 0x86, 0x09, 0x5d, 0xbf,
  0x15, 0xaa, 0xe1, 0x3e, 0xe1, 0xec, 0x5f, 0xc0, 0x05, 0xd4, 0xd4, 0xbd, 0x1c, 0x11, 0x5f, 0x3e,
  0xf4, 0xf3, 0x2c, 0x3f, 0x79, 0x3e, 0xac, 0xbf, 0x39, 0x03, 0xa3, 0xbe, 0xe0, 0x8c, 0x0c, 0x3f,
  0xd3, 0x4c, 0xd2, 0x3d, 0xec, 0x7e, 0x8a, 0xc0, 0x52, 0xc1, 0xc2, 0xbe, 0x93, 0x89, 0xe3, 0x3e,
  0x77, 0x58, 0x7b, 0x3e, 0xc3, 0xb6, 0x16, 0xbf, 0xd0, 0xdf, 0x1d, 0xbf, 0x28, 0x85, 0x3a, 0xba,
  0xba, 0x0e, 0xf5, 0xbe, 0x84, 0x74, 0xe5, 0xbf, 0xe5, 0x9b, 0x8a, 0xbf, 0x48, 0x3b, 0x56, 0x3e,
  0x16, 0x2b, 0xec, 0x3c, 0xb6, 0x01, 0x95, 0xbe, 0x5c, 0x60, 0x27, 0xc0, 0x5a, 0xda, 0x98, 0x3e,
  0x3d, 0xf9, 0x6b, 0xbf, 0x79, 0x5c, 0x9f, 0xc0, 0x15, 0x75, 0x94, 0x3f, 0xd8, 0x73, 0x87, 0xbf,
  0xaa, 0x3f, 0x59, 0x3f, 0x68, 0x99, 0xb6, 0xbe, 0x1c, 0x0f, 0xbe, 0xbe, 0x24, 0x24, 0x83, 0x3e,
  0xf2, 0x12, 0x96, 0xbe, 0x06, 0x0f, 0x76, 0xc0, 0xc2, 0x90, 0x79, 0x3f, 0x34, 0x37, 0xde, 0x3c,
  0x26, 0x64, 0x34, 0x3f, 0x26, 0x39, 0x6d, 0xbd, 0x81, 0xe0, 0xc8, 0x3e, 0xd7, 0x9e, 0x3c, 0x3e,
  0x23, 0x1f, 0x3e, 0x3e, 0x55, 0x3e, 0x49, 0xc0, 0x43, 0x66, 0x66, 0xbe, 0x6f, 0xad, 0xfb, 0x3e,
  0xe5, 0x72, 0xbf, 0xbd, 0x32, 0x43, 0xe5, 0x3d, 0x75, 0x21, 0x95, 0xbe, 0xa5, 0xc5, 0x0f, 0xbc,
  0xad, 0x0d, 0xe7, 0xba, 0x5c, 0x47, 0xac, 0xc0, 0x41, 0x75, 0x09, 0x3f, 0x13, 0xc6, 0xd8, 0xc0,
  0x89, 0xfc, 0xaf, 0x3e, 0xac, 0x20, 0xa3, 0xc0, 0xe4, 0x62, 0xae, 0xbf, 0x07, 0xd7, 0x93, 0xc0,
  0x6c, 0x68, 0x7c, 0xbe, 0xea, 0xa3, 0x4f, 0xc0, 0x45, 0x80, 0x25, 0x3f, 0xbe, 0xa4, 0x78, 0xbf,
  0x6e, 0x35, 0x50, 0x3f, 0x6e, 0x35, 0xa6, 0xbe, 0x2b, 0x9b, 0x9b, 0xbe, 0xe1, 0x4f, 0x53, 0x3f,
  0xd1, 0x8d, 0x6a, 0x3e, 0xaa, 0x12, 0x96, 0xc0, 0x8f, 0x42, 0x55, 0x3f, 0xe0, 0x78, 0xf9, 0xbe,
  0x33, 0x4d, 0x19, 0x3f, 0x42, 0xdf, 0x42, 0x3f, 0x1f, 0x13, 0xb0, 0x3d, 0x7e, 0x97, 0x82, 0xbd,
  0x7c, 0x88, 0xae, 0x3e, 0xa3, 0x02, 0xbf, 0xbf, 0x4d, 0x8f, 0x29, 0xc0, 0x0e, 0x20, 0x27, 0x3d,
  0x26, 0x00, 0xef, 0xbe, 0x02, 0xf7, 0x93, 0xbe, 0xe6, 0x73, 0x05, 0x3f, 0x49, 0x4f, 0x66, 0x3d,
  0x1a, 0xaf, 0x2a, 0x3e, 0xac, 0xa3, 0x1e, 0xc0, 0x85, 0x8d, 0x7a, 0xbf, 0xae, 0x31, 0xed, 0x3e,
  0x89, 0xb2, 0x92, 0x3e, 0x78, 0x8f, 0x03, 0xbf, 0x37, 0xaf, 0x07, 0x3f, 0xc7, 0x7e, 0x64, 0x3e,
  0x54, 0x28, 0xa5, 0xbe, 0x9e, 0xf7, 0x0b, 0xc0, 0x77, 0x26, 0x0f, 0xc0, 0x0a, 0xc6, 0x62, 0xbe,
  0x07, 0x53, 0x06, 0xc0, 0x2f, 0x22, 0xc1, 0xbf, 0x69, 0x7a, 0x48, 0xc0, 0x64, 0x33, 0xb6, 0xbe,
  0x00, 0x22, 0x08, 0xc0, 0x7c, 0xc4, 0xdb, 0xbe, 0x20, 0x72, 0x5e, 0x3e, 0xbf, 0xd4, 0x10, 0xbe,
  0x66, 0x45, 0xfe, 0x3e, 0x7b, 0x26, 0x6b, 0xbf, 0xfa, 0x64, 0xc5, 0x3e, 0xa4, 0x2d, 0x86, 0x3e,
  0xdd, 0x01, 0xf5, 0x3d, 0x7a, 0xac, 0x24, 0xbe, 0xec, 0xaf, 0x3a, 0xbe, 0xe2, 0xb2, 0xb5, 0xbe,
  0xfd, 0xa3, 0x42, 0x3e, 0x0e, 0xae, 0xe8, 0xbe, 0x6a, 0xf3, 0xd6, 0x3e, 0x10, 0x2a, 0x1d, 0x3f,
  0xc8, 0xad, 0x8c, 0xbe, 0xb5, 0x18, 0x5e, 0xbf, 0xc6, 0x09, 0x41, 0x3e, 0x8d, 0x5f, 0xe5, 0xbe,
  0x50, 0x95, 0x83, 0x3e, 0xb5, 0x1f, 0x21, 0x3e, 0x5f, 0x39, 0x1a, 0xc0, 0x4c, 0xbf, 0x70, 0xbe,
  0xe2, 0x2a, 0xaa, 0xbf, 0x56, 0x76, 0x00, 0xbf, 0x83, 0xc4, 0x9c, 0x3f, 0x93, 0x33, 0x25, 0xbf,
  0x38, 0xd0, 0x18, 0x3f, 0x5e, 0xaa, 0x02, 0xc1, 0xd6, 0xe3, 0x2c, 0x3f, 0x87, 0xcb, 0x8e, 0xc0,
  0xda, 0xd0, 0xdc, 0xbe, 0x03, 0x1a, 0xb2, 0x3e, 0x9b, 0x40, 0x85, 0xbf, 0xf3, 0x51, 0xc3, 0x3f,
  0x5b, 0xf0, 0x1f, 0xbe, 0x9a, 0x8d, 0xd2, 0xc0, 0x9b, 0x71, 0x33, 0x3f, 0xec, 0x0f, 0xe8, 0xbf,
  0xac, 0x94, 0x1e, 0xc0, 0xde, 0x46, 0xf4, 0xbe, 0xaf, 0xe2, 0xbd, 0x3e, 0xb4, 0xda, 0xe8, 0xbf,
  0x2e, 0xd1, 0x8d, 0x3f, 0x9a, 0x94, 0xbd, 0xc0, 0xb1, 0x10, 0x2a, 0xbf, 0xc2, 0xe2, 0x61, 0x3f,
  0x47, 0x8c, 0x5d, 0x3e, 0xed, 0xe7, 0x3c, 0x3f, 0x7e, 0x21, 0x06, 0xbe, 0x96, 0x6e, 0x3b, 0x3f,
  0xfd, 0x99, 0x29, 0xc0, 0x85, 0xc1, 0x42, 0x3d, 0xa5, 0x22, 0x3b, 0x3e, 0xbc, 0x7f, 0xdb, 0xbe,
  0xd0, 0xef, 0x61, 0x3f, 0xee, 0x72, 0x82, 0x3f, 0xb0, 0xac, 0xb6, 0xbf, 0xe5, 0x07, 0xc2, 0x3e,
  0x4a, 0xea, 0x50, 0xc0, 0xb1, 0x7d, 0x9f, 0xbe, 0xa6, 0x56, 0xa7, 0x3e, 0xf4, 0xeb, 0x01, 0xbf,
  0xc3, 0xd1, 0x3d, 0xbf, 0x1e, 0x04, 0x8d, 0xbf, 0x25, 0x81, 0x0f, 0xbf, 0x88, 0xc0, 0x8e, 0xbe,
  0xb5, 0x46, 0xf5, 0xbf, 0xfb, 0xb9, 0x15, 0xc0, 0xaf, 0x27, 0xcb, 0xbf, 0x3e, 0x57, 0x26, 0xc0,
  0xff, 0xb0, 0xb4, 0xbf, 0x5a, 0x18, 0xbe, 0x3e, 0x9f, 0x0e, 0xb5, 0xbc, 0x7b, 0xef, 0x3a, 0x3f,
  0x2e, 0x2a, 0x60, 0x3f, 0xaa, 0x49, 0x2a, 0x3e, 0x91, 0x5c, 0x70, 0xbf, 0x1d, 0xc0, 0x0e, 0xbf,
  0x5a, 0x5e, 0x37, 0x3f, 0xca, 0xa4, 0x09, 0xbf, 0x5f, 0x13, 0xaf, 0xbe, 0xbc, 0x4d, 0x60, 0xbe,
  0x4b, 0x2b, 0xc2, 0x3f, 0x97, 0xb5, 0xfb, 0x3e, 0x59, 0xe5, 0xa9, 0xbc, 0xe0, 0xd3, 0x4c, 0xbf,
  0xca, 0xd4, 0xe3, 0xbe, 0x18, 0x18, 0x09, 0xc0, 0x26, 0x4b, 0x8f, 0x3f, 0x82, 0xaa, 0x9a, 0xbf,
  0x66, 0x37, 0x0b, 0x3e, 0x10, 0x08, 0x67, 0xc0, 0x0c, 0x8e, 0xd5, 0xbf, 0x54, 0x21, 0x91, 0xbf,
  0xf6, 0x34, 0x07, 0xc0, 0x62, 0x09, 0xab, 0xbe, 0xac, 0x32, 0xde, 0x3c, 0xe4, 0x0d, 0xb0, 0xbf,
  0x47, 0xbd, 0xde, 0x3c, 0x63, 0x37, 0x89, 0xbe, 0x5f, 0x2c, 0xc7, 0xbd, 0x40, 0x78, 0xd9, 0xbf,
  0x2c, 0x60, 0x20, 0xc0, 0x57, 0xd1, 0x81, 0xc0, 0x79, 0xdb, 0xa3, 0x3e, 0x9b, 0x2d, 0x6e, 0xc0,
  0x4d, 0x58, 0x3e, 0x3f, 0xcf, 0x0c, 0xa0, 0xbf, 0x8a, 0x7e, 0x48, 0xc0, 0xa5, 0x9b, 0x08, 0xbe,
  0xa6, 0x0b, 0x01, 0xc0, 0x27, 0xfc, 0xe1, 0xbf, 0x49, 0x21, 0x93, 0xbd, 0xcc, 0xc5, 0x43, 0xbf,
  0xed, 0xaa, 0x13, 0xbd, 0xa2, 0x84, 0x4f, 0xc0, 0x0c, 0x15, 0xb1, 0xbf, 0x3e, 0xc0, 0x3b, 0x3e,
  0x9d, 0x3c, 0xb0, 0x3f, 0x63, 0xc2, 0xea, 0xbe, 0x22, 0x73, 0xb9, 0xc0, 0x05, 0x56, 0x39, 0x3f,
  0x9f, 0x9e, 0x99, 0xbf, 0x71, 0xf0, 0x09, 0x3f, 0x9b, 0x5e, 0x32, 0x40, 0x7e, 0x14, 0x8c, 0x3d,
  0xd6, 0x19, 0xac, 0xbc, 0x55, 0x56, 0x87, 0xbf, 0x6c, 0x09, 0x21, 0xc0, 0x36, 0x18, 0xdf, 0x3d,
  0xb2, 0x76, 0xb4, 0xc0, 0x95, 0x47, 0x36, 0xbf, 0x0c, 0xc7, 0xce, 0x3f, 0x2c, 0xbb, 0x19, 0x3e,
  0x4e, 0x72, 0x98, 0xc0, 0xfb, 0x0b, 0x38, 0xbf, 0x0a, 0x89, 0xa9, 0xbf, 0x7c, 0xad, 0x81, 0xbd,
  0xdd, 0xd2, 0x0b, 0xc0, 0xa9, 0x43, 0x48, 0xc0, 0xdb, 0xd1, 0xe4, 0xbf, 0x20, 0x9a, 0x92, 0xbf,
  0x07, 0x67, 0x90, 0xbf, 0xc8, 0xb6, 0x78, 0xbf, 0xd0, 0xbf, 0x6e, 0xc0, 0xe0, 0xe3, 0x4a, 0x3f,
  0x45, 0x64, 0x1d, 0xbf, 0x7d, 0x45, 0x05, 0xbf, 0x68, 0xeb, 0xc4, 0x3f, 0x66, 0xb7, 0x64, 0x3e,
  0x67, 0xc2, 0x1e, 0x3f, 0xa2, 0x99, 0xb5, 0xbf, 0x8f, 0x1b, 0x6f, 0xc0, 0x5d, 0xfb, 0xd7, 0x3d,
  0xf5, 0xeb, 0xb0, 0xbf, 0x3a, 0xe8, 0xc4, 0xbe, 0x07, 0x89, 0x43, 0x3f, 0x50, 0xb3, 0xca, 0x3e,
  0x15, 0xdf, 0x85, 0xbf, 0x0b, 0x62, 0xf1, 0xbc, 0x80, 0x73, 0x2f, 0xc0, 0xc0, 0xaa, 0xba, 0x3d,
  0x6f, 0x8f, 0x21, 0xbf, 0x32, 0xe1, 0xf1, 0xbf, 0xb7, 0x4e, 0xe9, 0xbf, 0x57, 0x9a, 0xd4, 0xbe,
  0x28, 0x81, 0x4c, 0xbe, 0x3c, 0xb2, 0x33, 0x3d, 0x9f, 0x21, 0xd7, 0xbe, 0x89, 0x13, 0x4d, 0xbe,
  0xe6, 0x54, 0x68, 0x3f, 0xc2, 0x5b, 0x56, 0xbf, 0xfe, 0x94, 0x5f, 0xbf, 0xf3, 0xc3, 0x89, 0xbf,
  0xa4, 0x52, 0x6d, 0x3f, 0x1a, 0xbe, 0xd6, 0xbf, 0x3c, 0x67, 0xe7, 0x3e, 0xe3, 0xdf, 0x3b, 0x3d,
  0x9a, 0x2f, 0x8f, 0x3e, 0xd0, 0xab, 0x0d, 0xbf, 0x57, 0x30, 0x4f, 0xbf, 0xf2, 0xea, 0x84, 0xbe,
  0xd0, 0xa7, 0x9c, 0xbe, 0xdf, 0xbd, 0x1e, 0xbe, 0x9a, 0x21, 0xb8, 0x3d, 0x11, 0xe9, 0x06, 0xbe,
  0xeb, 0xad, 0x1c, 0x3f, 0x67, 0x71, 0xbf, 0x3d, 0x13, 0x3c, 0x8e, 0xbf, 0xc9, 0x81, 0x29, 0xbe,
  0xde, 0x10, 0x75, 0xbe, 0x24, 0xf7, 0xfb, 0xbe, 0x81, 0x4a, 0x48, 0xc0, 0x9f, 0x54, 0xb7, 0xbb,
  0x2b, 0xc1, 0x58, 0xc0, 0xb7, 0x35, 0xe9, 0x3e, 0x8e, 0xbe, 0x47, 0xc0, 0xed, 0x39, 0x6e, 0xbf,
  0x6a, 0xe5, 0x4c, 0xc0, 0x55, 0xb6, 0xad, 0x3e, 0x56, 0x4d, 0x73, 0x3b, 0xd7, 0x3c, 0x4e, 0x3e,
  0xef, 0xba, 0xc6, 0xbf, 0xc7, 0xba, 0x68, 0xc0, 0x96, 0xd5, 0xc5, 0xbf, 0x94, 0xc9, 0xc7, 0xbf,
  0x80, 0xc6, 0x26, 0xc0, 0x2c, 0x12, 0x83, 0x3f, 0x65, 0x21, 0xad, 0x3f, 0xf1, 0x16, 0x19, 0xbf,
  0x30, 0x11, 0x39, 0x3f, 0x75, 0xbe, 0x60, 0xc0, 0xa7, 0x05, 0x0e, 0xc0, 0x9f, 0xaa, 0x82, 0xc0,
  0x6b, 0x84, 0xbf, 0xbf, 0x26, 0x5d, 0x01, 0x3e, 0xbc, 0xe5, 0xc5, 0xc0, 0x88, 0x93, 0x50, 0x3e,
  0xe6, 0x73, 0x1f, 0xc0, 0xbd, 0xae, 0x84, 0x3f, 0x8a, 0x1e, 0xb0, 0x3f, 0x2e, 0x5d, 0xe2, 0xbe,
  0xc2, 0x63, 0xd0, 0x3d, 0xc1, 0xb2, 0xce, 0xbf, 0x93, 0x22, 0xd0, 0xc0, 0x30, 0x0c, 0x08, 0xbd,
  0xdf, 0x1e, 0x6b, 0xc0, 0xe9, 0x42, 0x43, 0x3f, 0x85, 0xf4, 0x34, 0x3f, 0xfe, 0x7a, 0xbd, 0xbe,
  0x94, 0xbf, 0xbe, 0x3e, 0x14, 0x1b, 0xc9, 0xbf, 0x9a, 0x46, 0x31, 0xbf, 0x45, 0x56, 0x13, 0x3e,
  0x51, 0x72, 0x3b, 0xc0, 0xaf, 0x04, 0x3d, 0x3f, 0x53, 0x0a, 0x83, 0x3f, 0xe7, 0xb4, 0x34, 0xbf,
  0xe9, 0xba, 0xa7, 0xc0, 0xd3, 0x05, 0x4e, 0x3f, 0x65, 0x7d, 0x0d, 0x3d, 0x76, 0x45, 0x0e, 0xbf,
  0x2f, 0xc3, 0x6a, 0x3e, 0x95, 0xd4, 0xb9, 0xbd, 0xd7, 0x19, 0x67, 0x3e, 0xb4, 0xb7, 0x5a, 0xbe,
  0x08, 0x6d, 0x6a, 0xbe, 0xd0, 0xc4, 0xe8, 0x3c, 0xed, 0x93, 0xed, 0x3e, 0xbb, 0xda, 0x28, 0x3f,
  0xca, 0x0f, 0x00, 0x3f, 0x29, 0x33, 0xfd, 0x3e, 0x3b, 0x71, 0x0a, 0x3f, 0x41, 0xb0, 0x13, 0x3e,
  0xc4, 0xb1, 0xd2, 0x3e, 0xe0, 0x8b, 0xad, 0xbb, 0x1d, 0x32, 0xce, 0x3e, 0x28, 0x5d, 0x3a, 0x3e,
  0xb0, 0xed, 0xa2, 0x3d, 0x1b, 0x9b, 0x48, 0x3e, 0xf2, 0xd7, 0x39, 0x3d, 0x56, 0xf9, 0x4c, 0x3f,
  0xe4, 0xed, 0x98, 0xbe, 0x34, 0xa0, 0xce, 0xbe, 0x6c, 0xde, 0x47, 0xc0, 0x23, 0x45, 0xef, 0x3e,
  0xa6, 0x39, 0xc9, 0x3e, 0x41, 0x8e, 0x5c, 0xbf, 0xf0, 0x6d, 0xb5, 0xbf, 0x4b, 0x8a, 0x25, 0x3f,
  0x4a, 0x88, 0xbd, 0x3e, 0x96, 0x4c, 0x4b, 0xbe, 0x0c, 0x1b, 0x44, 0xc0, 0xce, 0x40, 0x97, 0x3e,
  0xcb, 0x13, 0x41, 0x3f, 0x26, 0x9c, 0x60, 0xbf, 0x85, 0x1a, 0x2f, 0xc0, 0x5d, 0xd2, 0x10, 0x3f,
  0xf6, 0xcf, 0x8a, 0x3d, 0x5a, 0x5a, 0x52, 0xbf, 0xf4, 0xb6, 0x22, 0xc0, 0xcc, 0x56, 0xdc, 0x3e,
  0x23, 0x4b, 0x7a, 0x3f, 0xdc, 0xd4, 0x53, 0xbf, 0x5d, 0x63, 0x75, 0xbf, 0xf1, 0xd0, 0x37, 0x3f,
  0x0e, 0x4e, 0xaa, 0x3e, 0x49, 0x51, 0xf0, 0x3e, 0x35, 0x7b, 0xc6, 0x3d, 0xc8, 0x02, 0xbc, 0xbd,
  0xc0, 0x56, 0x95, 0x3f, 0x72, 0x6a, 0x8d, 0xbe, 0x5d, 0xfd, 0x3e, 0xbe, 0xf2, 0x55, 0x00, 0xbf,
  0x8b, 0x42, 0x8f, 0x3e, 0x85, 0x34, 0x79, 0x3e, 0xd5, 0xe4, 0xc9, 0x3d, 0x69, 0xc1, 0x04, 0xbe,
  0x00, 0xdf, 0x6f, 0x3f, 0x93, 0xeb, 0xd8, 0x3d, 0x09, 0xef, 0x87, 0xbe, 0xd9, 0x7a, 0x66, 0xbf,
  0x9e, 0xea, 0xaa, 0x3e, 0x74, 0x0c, 0x2f, 0x3f, 0x5f, 0x0b, 0x04, 0xbd, 0x64, 0xa3, 0xdb, 0xbe,
  0xc7, 0x27, 0x86, 0x3f, 0x80, 0x62, 0x9f, 0xbe, 0x04, 0xe7, 0x19, 0x3d, 0xe5, 0x8d, 0x62, 0xbf,
  0x74, 0x88, 0xb5, 0x3e, 0x76, 0x80, 0x04, 0xbe, 0xbc, 0x5f, 0xf1, 0x3c, 0x3e, 0xff, 0x47, 0xbe,
  0xd3, 0x19, 0x15, 0xbf, 0x63, 0x3e, 0x88, 0x3d, 0x21, 0xc5, 0x4f, 0x3f, 0xa4, 0x4b, 0xff, 0xbf,
  0x44, 0xa6, 0x5f, 0xbe, 0x8e, 0x70, 0x13, 0xbd, 0x52, 0x84, 0x88, 0x3d, 0x55, 0xa7, 0x3c, 0x3e,
  0x86, 0xa4, 0xa8, 0xbe, 0x2b, 0x98, 0x27, 0xbe, 0xbc, 0x77, 0xa8, 0x3f, 0x59, 0xf5, 0x1c, 0xc0,
  0xe9, 0x31, 0xd8, 0xbd, 0xe2, 0x28, 0x7f, 0x3e, 0x18, 0xd3, 0x8b, 0xbe, 0x54, 0xce, 0xae, 0x3d,
  0xfa, 0xd2, 0xfb, 0xbe, 0x48, 0x1f, 0x13, 0xbf, 0x9e, 0xb4, 0x42, 0x3f, 0xca, 0x3e, 0xeb, 0xbf,
  0x64, 0x22, 0x1a, 0xbf, 0x48, 0x08, 0xa4, 0x3e, 0xee, 0x0a, 0x83, 0x3e, 0x3e, 0x52, 0x8e, 0x3e,
  0xba, 0x2b, 0x56, 0x3f, 0xd8, 0x0d, 0xe2, 0x3d, 0x6b, 0x2b, 0x74, 0x3f, 0xb8, 0x51, 0x10, 0xbf,
  0x21, 0x00, 0x8d, 0x3e, 0x84, 0x15, 0xa4, 0x3e, 0xf1, 0xfa, 0x7b, 0x3d, 0x52, 0xe7, 0x9b, 0x3d,
  0x02, 0xbc, 0x30, 0x3f, 0x36, 0xeb, 0x70, 0xbf, 0xc3, 0x96, 0x7e, 0x3f, 0xe4, 0xc0, 0xa3, 0xbe,
  0xf3, 0x3a, 0x1c, 0x3d, 0x62, 0xcd, 0x3e, 0x3e, 0xe2, 0x4c, 0xd1, 0x3e, 0x21, 0xfb, 0xd8, 0x3d,
  0xde, 0xca, 0xa4, 0x3c, 0x38, 0x05, 0x9a, 0xbe, 0x43, 0x09, 0xad, 0x3f, 0x1c, 0xe9, 0x77, 0xbf,
  0x44, 0x68, 0x21, 0x3f, 0x08, 0x7e, 0x81, 0xbd, 0x1a, 0x3f, 0x93, 0x3e, 0x44, 0xc3, 0xe8, 0x3c,
  0x2e, 0x0f, 0x24, 0xbf, 0x5a, 0x11, 0x5d, 0xc0, 0x21, 0xbd, 0x57, 0x3f, 0x90, 0xc0, 0x64, 0xbf,
  0xe7, 0xc0, 0xff, 0xbe, 0x03, 0x61, 0x06, 0x3f, 0xa0, 0xd2, 0x46, 0x3f, 0x68, 0x39, 0x33, 0xbf,
  0xa1, 0xd2, 0x27, 0x3c, 0x49, 0x52, 0x74, 0xbf, 0x73, 0x92, 0x60, 0x3f, 0x05, 0x28, 0x3e, 0xbe,
  0x83, 0xb6, 0x9e, 0xbf, 0x3c, 0x75, 0x26, 0xbe, 0xb7, 0x8e, 0x05, 0xbd, 0xba, 0xfb, 0x47, 0x3e,
  0xe9, 0xac, 0xf5, 0xbf, 0x67, 0x93, 0x6a, 0xc0, 0x4c, 0xa1, 0x9c, 0x3f, 0x3b, 0x32, 0x7c, 0xc0,
  0x37, 0xba, 0xa9, 0xbf, 0x0f, 0xcf, 0x63, 0xc0, 0xb1, 0xa1, 0xb6, 0xbf, 0x89, 0x1d, 0x79, 0xc0,
  0xdf, 0xc6, 0xa8, 0xbf, 0x8c, 0x97, 0x2d, 0xc0, 0x77, 0x9b, 0xa9, 0xc0, 0x0b, 0x0c, 0x08, 0xc0,
  0x5d, 0xeb, 0x42, 0xc0, 0xbe, 0xed, 0xb0, 0xbf, 0xfd, 0xcf, 0x8f, 0xbf, 0x05, 0x18, 0x79, 0xc0,
  0xfe, 0x2a, 0x2c, 0xc0, 0xb6, 0xf0, 0xc9, 0xbf, 0xbe, 0xd4, 0x04, 0xc0, 0x0f, 0xc9, 0xe0, 0xbf,
  0x13, 0x2f, 0x7d, 0xc0, 0xc6, 0xbd, 0x34, 0xbf, 0xd8, 0x1d, 0x04, 0xc0, 0xb1, 0x85, 0x27, 0xc0,
  0x4f, 0x2a, 0x3f, 0xbf, 0xfa, 0x2d, 0xdc, 0xbf, 0x1d, 0x8a, 0x87, 0xc0, 0x88, 0xc8, 0x24, 0xc0,
  0xdb, 0x6a, 0x2c, 0xc0, 0xda, 0x21, 0x2c, 0x3f, 0xd8, 0x86, 0x91, 0xbf, 0x81, 0xec, 0x3c, 0x3f,
  0x33, 0xaa, 0x90, 0x3f, 0x46, 0x4d, 0x8f, 0xbf, 0x6f, 0xc9, 0x95, 0xbf, 0x86, 0xf3, 0x49, 0xbd,
  0x01, 0xf8, 0x25, 0xbf, 0x0e, 0xc3, 0x3c, 0xbf, 0x22, 0x45, 0xf3, 0xbf, 0x88, 0xd6, 0x81, 0xbf,
  0xc1, 0xfb, 0x48, 0x3f, 0xac, 0x19, 0x83, 0xc0, 0x54, 0x2d, 0x18, 0x3f, 0x39, 0x5f, 0x84, 0xbf,
  0x2c, 0x21, 0x3d, 0xbe, 0xd6, 0x0b, 0xc5, 0x3f, 0xd8, 0xe3, 0x80, 0x3f, 0x3b, 0xdc, 0x2c, 0x3f,
  0xfc, 0xa1, 0x6c, 0xbe, 0xf7, 0x77, 0xb8, 0xbf, 0xcd, 0x8a, 0x12, 0xbf, 0x02, 0xf7, 0xd2, 0xbf,
  0x20, 0x01, 0x73, 0x3f, 0x05, 0xe4, 0x45, 0xbf, 0x39, 0x6e, 0x54, 0xbf, 0x83, 0xdf, 0x79, 0x3f,
  0xbf, 0xcc, 0x67, 0x3d, 0x2b, 0xdf, 0xe7, 0xbf, 0x7d, 0xcc, 0xc0, 0xbf, 0x7f, 0x11, 0x4f, 0xbf,
  0xa4, 0x47, 0xa5, 0xbf, 0x55, 0xce, 0xc8, 0xbf, 0x3d, 0x8d, 0x1f, 0xbf, 0xe2, 0x35, 0xda, 0xbe,
  0x79, 0x56, 0xec, 0xbf, 0x0d, 0x38, 0xe3, 0xbf, 0x09, 0xad, 0xf6, 0xbe, 0xa3, 0x4c, 0xb9, 0xbf,
  0x75, 0x78, 0x09, 0xc0, 0x24, 0x3a, 0xaa, 0xbf, 0x2d, 0x3a, 0x36, 0x3e, 0xcf, 0xa6, 0x0f, 0xbf,
  0x1e, 0xe6, 0x2e, 0xbe, 0x0b, 0x48, 0xea, 0xbf, 0x45, 0xe5, 0x93, 0xbf, 0x3a, 0xd1, 0xff, 0xbf,
  0x66, 0x7e, 0xc4, 0x3b, 0x19, 0x05, 0x89, 0xbf, 0x79, 0x73, 0x6b, 0x3f, 0x35, 0xe8, 0xfc, 0xbf,
  0x6a, 0xc1, 0x33, 0xbf, 0xe1, 0x73, 0x2f, 0xc0, 0x1e, 0xc3, 0x6a, 0xbd, 0x31, 0x76, 0x63, 0xc0,
  0x3d, 0x2b, 0xcf, 0xbf, 0x4e, 0x72, 0x99, 0xbe, 0x02, 0xb6, 0xec, 0xbf, 0x21, 0xbf, 0x47, 0xc0,
  0x88, 0xcd, 0xb4, 0xbf, 0xce, 0xf0, 0xd6, 0xbf, 0x30, 0xd8, 0x42, 0xc0, 0x70, 0x67, 0x06, 0xc0,
  0x1a, 0xf2, 0x47, 0xbf, 0x19, 0x49, 0xe7, 0xbf, 0xd5, 0xca, 0x26, 0xbf, 0x1d, 0x13, 0x07, 0xc0,
  0x39, 0x9a, 0x8c, 0xbf, 0x62, 0x3d, 0x99, 0xbf, 0xfe, 0xc8, 0x4b, 0xbf, 0x40, 0x36, 0x1a, 0x3e,
  0x15, 0x63, 0xc4, 0x3e, 0xe4, 0x1e, 0x2b, 0xc0, 0xd9, 0x68, 0xa9, 0xc0, 0xd4, 0x4e, 0x4b, 0xbf,
  0x9e, 0x2c, 0xfd, 0xbf, 0xfc, 0x6a, 0x4d, 0xc0, 0x0c, 0x4d, 0x92, 0xc0, 0xac, 0x52, 0x98, 0xbe,
  0xfb, 0x30, 0x5b, 0xc0, 0x69, 0xdf, 0x1d, 0xc0, 0xd8, 0xab, 0x55, 0xc0, 0xf8, 0x90, 0x22, 0xbd,
  0x4e, 0x1a, 0xcb, 0xbf, 0xc1, 0xbd, 0x59, 0xc0, 0x74, 0x68, 0x66, 0xc0, 0x95, 0x6c, 0xe0, 0xbd,
  0x60, 0xa0, 0x87, 0xc0, 0x95, 0x6e, 0xb5, 0xbf, 0x6a, 0x6c, 0x3a, 0xc0, 0x10, 0x51, 0x1a, 0xbe,
  0x24, 0xdd, 0x22, 0xbf, 0x29, 0x99, 0x63, 0xc0, 0x67, 0x7c, 0xe4, 0xbf, 0x07, 0xe5, 0x8d, 0x3c,
  0x39, 0x06, 0x58, 0xc0, 0xa7, 0x21, 0x96, 0xbe, 0x3d, 0x9e, 0xc1, 0xbf, 0x66, 0xb5, 0xc5, 0x3e,
  0x38, 0x7a, 0x15, 0x3f, 0xf5, 0x13, 0x66, 0xbf, 0x23, 0x1d, 0x80, 0xbf, 0xb8, 0x1d, 0x54, 0x3f,
  0x34, 0x58, 0x76, 0x3e, 0x87, 0x1c, 0x08, 0xbf, 0x25, 0x06, 0xa4, 0xbf, 0x8b, 0x70, 0x22, 0x3e,
  0xdc, 0xf6, 0x65, 0x3f, 0xa0, 0x43, 0x3c, 0xbf, 0xd2, 0xcc, 0x3a, 0xbf, 0x38, 0xf8, 0x53, 0x3f,
  0x00, 0x76, 0x3e, 0x3e, 0xdb, 0x1a, 0x8c, 0xbc, 0xb5, 0xd1, 0xb1, 0xbf, 0xb1, 0x54, 0xff, 0x3e,
  0xaa, 0x04, 0x62, 0x3f, 0x9a, 0x12, 0xda, 0xbe, 0x70, 0xfa, 0x84, 0xbf, 0x88, 0xe9, 0x13, 0x3f,
  0x1c, 0xea, 0x19, 0x3e, 0x28, 0xf5, 0xd3, 0x3e, 0x9a, 0xc1, 0x9c, 0xbc, 0x3e, 0x7b, 0xc6, 0xbb,
  0x1c, 0xe1, 0xc6, 0x3e, 0x1a, 0xf4, 0x09, 0xbf, 0x35, 0x75, 0xca, 0xbe, 0xac, 0xb1, 0xa4, 0xbe,
  0xf6, 0xad, 0x0a, 0xbc, 0x9f, 0xe6, 0x25, 0x3d, 0xb0, 0x28, 0xa4, 0x3d, 0x66, 0xcf, 0xc1, 0xbe,
  0xfe, 0xc3, 0x16, 0x3f, 0x40, 0x01, 0xfa, 0xbe, 0x4d, 0x4b, 0x05, 0xbe, 0xb3, 0xed, 0x52, 0xbf,
  0x0e, 0xd4, 0x21, 0x3d, 0x97, 0xea, 0x15, 0xbb, 0x3c, 0x01, 0x0a, 0xbd, 0xdf, 0x72, 0x3f, 0xbe,
  0xb9, 0x22, 0x1f, 0x3f, 0x13, 0x41, 0x0e, 0xbf, 0x3b, 0x7e, 0x8a, 0x3d, 0xa5, 0x83, 0xf6, 0xbe,
  0xd4, 0x39, 0x8e, 0xbe, 0x38, 0x55, 0xbd, 0xc0, 0x58, 0x3d, 0x8e, 0xc0, 0xb2, 0x04, 0xeb, 0xbf,
  0xbe, 0x02, 0x48, 0xbf, 0x3e, 0x0b, 0x0f, 0xc1, 0x5b, 0xcf, 0xf3, 0xbf, 0x6a, 0xc3, 0xa2, 0xbe,
  0xac, 0x3d, 0x70, 0xc0, 0x50, 0x35, 0x04, 0xc0, 0x97, 0x99, 0x21, 0xc0, 0x2e, 0x03, 0x1c, 0xc0,
  0x48, 0x33, 0x38, 0xbf, 0x9f, 0x57, 0x16, 0xc1, 0x5c, 0xd3, 0x8e, 0xc0, 0x1e, 0x3d, 0x14, 0xbf,
  0xbd, 0x78, 0x54, 0xc0, 0x90, 0x7e, 0x9c, 0xc0, 0x19, 0xf7, 0x1d, 0xc0, 0x4f, 0xf6, 0x3d, 0xbf,
  0xa2, 0x1b, 0x7a, 0xbf, 0x29, 0xf5, 0xd2, 0xc0, 0x37, 0x2d, 0x0a, 0xbf, 0xec, 0x6a, 0xbd, 0xbe,
  0x39, 0xfb, 0x73, 0xc0, 0xc1, 0xc0, 0x62, 0x3f, 0x28, 0xfb, 0x4e, 0x3f, 0x1e, 0xdf, 0x3f, 0x3f,
  0x95, 0x85, 0x6b, 0x3f, 0xe7, 0x2d, 0xc0, 0xbf, 0xf5, 0x34, 0xa0, 0x3e, 0xc3, 0x33, 0x38, 0x3e,
  0xe2, 0x62, 0x43, 0xbf, 0x4f, 0xbf, 0x8a, 0x3f, 0xd8, 0x38, 0x50, 0x3f, 0x0c, 0xd3, 0xc9, 0x3e,
  0xaf, 0x54, 0x68, 0x3f, 0xa7, 0x7a, 0xf2, 0xbe, 0xf8, 0x32, 0xeb, 0x3e, 0xea, 0xf2, 0x4b, 0xbe,
  0xf5, 0x81, 0x2e, 0xbf, 0x53, 0x5c, 0x87, 0x3f, 0xa3, 0xcf, 0x3d, 0x3f, 0xfb, 0xc1, 0xa4, 0x3e,
  0xf4, 0x6a, 0x2a, 0x3f, 0xfd, 0x38, 0xa0, 0xbf, 0xbf, 0x26, 0x68, 0x3e, 0x2f, 0x6b, 0xdc, 0x3d,
  0x60, 0x9e, 0x3d, 0xbd, 0x79, 0x74, 0x0f, 0x3d, 0x14, 0x95, 0xd8, 0x3e, 0xf4, 0x87, 0x00, 0xbe,
  0x6b, 0xea, 0xca, 0x3e, 0x65, 0x5d, 0xd0, 0x3e, 0xee, 0x37, 0xe9, 0x3e, 0xb9, 0x63, 0x6e, 0xbf,
  0x8e, 0x24, 0xda, 0x3d, 0xfb, 0xdc, 0xbb, 0x3e, 0x30, 0xa2, 0x80, 0x3e, 0xb7, 0x25, 0x75, 0x3f,
  0xf8, 0xf8, 0x1d, 0xbe, 0x7b, 0x51, 0x4f, 0x3d, 0x80, 0x79, 0x79, 0x3f, 0xee, 0x12, 0x80, 0xbe,
  0x92, 0xdf, 0x01, 0x3e, 0xdd, 0x10, 0x3b, 0x3f, 0x65, 0xb0, 0x61, 0x3d, 0xfa, 0x89, 0x4c, 0x3f,
  0x92, 0xee, 0xac, 0x3e, 0x8c, 0x5c, 0x53, 0x3f, 0x9f, 0xf0, 0x85, 0x3d, 0xbd, 0x43, 0x35, 0x3e,
  0x0c, 0x8c, 0x33, 0x3d, 0x05, 0x3a, 0x40, 0x3f, 0x89, 0x77, 0xc1, 0xbf, 0x92, 0x04, 0x1a, 0xbf,
  0xda, 0x22, 0x51, 0x3e, 0xbb, 0x08, 0x04, 0x3f, 0x54, 0x00, 0x83, 0x3f, 0x02, 0xb7, 0x4e, 0xc0,
  0x0f, 0x01, 0xb7, 0x3e, 0xdd, 0x69, 0x43, 0x3f, 0xec, 0x5d, 0x3e, 0x3f, 0xa3, 0xc1, 0x94, 0x3f,
  0xf7, 0x64, 0x8e, 0x3f, 0xb5, 0x91, 0x46, 0xc0, 0x6b, 0xb7, 0xc4, 0x3f, 0x4d, 0x18, 0x1c, 0xc0,
  0x78, 0xb9, 0xc3, 0x3c, 0x13, 0x52, 0x14, 0x3f, 0x4c, 0x5a, 0xe6, 0xbc, 0x9c, 0x3e, 0xb1, 0xbf,
  0x02, 0xce, 0x72, 0x3d, 0x9d, 0x6a, 0x0e, 0xc0, 0xcd, 0xc9, 0xb8, 0xbf, 0x86, 0x60, 0x08, 0xbf,
  0x51, 0xab, 0x91, 0x3f, 0x8a, 0xea, 0xc9, 0xbf, 0xa4, 0x35, 0x98, 0x3e, 0x91, 0x70, 0x22, 0xc0,
  0xb6, 0xaa, 0x57, 0xbf, 0x0d, 0xcb, 0x23, 0xbf, 0x24, 0xe7, 0x2e, 0x3e, 0xdd, 0x3c, 0xbd, 0xbf,
  0x8e, 0x7a, 0xc0, 0xbf, 0xa3, 0x5f, 0xd5, 0xbf, 0x67, 0x2f, 0x11, 0xc0, 0x29, 0x92, 0xbb, 0xbf,
  0xd2, 0x4a, 0xcd, 0xbf, 0x04, 0x48, 0x5d, 0xbf, 0x87, 0x1a, 0x19, 0x3f, 0x33, 0x54, 0x9f, 0xbf,
  0xf5, 0x05, 0xb7, 0xbf, 0xf4, 0x85, 0x5a, 0xbe, 0x60, 0x37, 0x9d, 0xbc, 0x59, 0xee, 0xa7, 0x3e,
  0x17, 0xa9, 0x0e, 0xc0, 0x37, 0x3e, 0x39, 0xc0, 0xb9, 0x72, 0xe1, 0x3e, 0xb6, 0x0e, 0x8d, 0xbf,
  0x1d, 0x43, 0xe5, 0xbd, 0x35, 0x83, 0x27, 0xbe, 0x4b, 0x84, 0x87, 0xbf, 0x98, 0x8f, 0x12, 0xbf,
  0x02, 0x76, 0x32, 0xbf, 0x1f, 0xc4, 0x19, 0xbf, 0x68, 0x46, 0x0e, 0xc0, 0xf3, 0xf2, 0x04, 0xc0,
  0x51, 0x0d, 0x99, 0xbf, 0x74, 0xfd, 0xdc, 0x3e, 0xaa, 0x9b, 0x95, 0xbf, 0x19, 0xef, 0x02, 0x3e,
  0x99, 0xd7, 0xb3, 0x3e, 0xd2, 0xfb, 0xda, 0x3e, 0xe1, 0x58, 0x47, 0xbe, 0xab, 0x05, 0xf1, 0x3e,
  0x14, 0x6d, 0xd5, 0xbd, 0xcc, 0xf6, 0xdf, 0xbe, 0x48, 0xd3, 0xd1, 0xbf, 0x4d, 0x5c, 0x2c, 0x3e,
  0x6f, 0xc5, 0x96, 0xbf, 0x1c, 0x88, 0x1a, 0x3e, 0x16, 0xfc, 0xee, 0xbd, 0x4b, 0x88, 0xe2, 0x3f,
  0x9f, 0x75, 0xcf, 0xbf, 0x85, 0xe0, 0x71, 0x3d, 0x37, 0xf2, 0x3b, 0xc0, 0xc1, 0xf6, 0xde, 0xbf,
  0x3b, 0x2a, 0xab, 0xbf, 0x6a, 0x19, 0xa5, 0xbe, 0xa8, 0xa1, 0x57, 0x3f, 0xb9, 0xbd, 0xc0, 0xbe,
  0x28, 0x80, 0x8d, 0x3e, 0xe0, 0x56, 0xcf, 0xbe, 0x79, 0xce, 0xd6, 0xbf, 0x90, 0xcc, 0x82, 0x3e,
  0xca, 0xe6, 0x42, 0xbf, 0x28, 0x19, 0xc0, 0xbf, 0x20, 0x82, 0xae, 0x3f, 0x7a, 0x1e, 0x7c, 0xbd,
  0x90, 0xc2, 0xac, 0x3e, 0xb3, 0xf0, 0x84, 0xbf, 0x64, 0x21, 0xd1, 0xbf, 0x6b, 0x28, 0xd4, 0x3e,
  0x5e, 0x64, 0x12, 0xbf, 0x3a, 0x87, 0xe4, 0xbe, 0x0d, 0xb7, 0xba, 0x3d, 0x07, 0x38, 0x1e, 0xbe,
  0xf8, 0x50, 0xe9, 0x3e, 0xbe, 0x01, 0x59, 0x3f, 0x66, 0x7d, 0x3a, 0x3e, 0xa8, 0x1f, 0x07, 0xc0,
  0x5c, 0x72, 0xa3, 0xbd, 0x53, 0x38, 0x63, 0xbf, 0xeb, 0x64, 0xbb, 0xbf, 0xcd, 0x4b, 0xd6, 0x3d,
  0xfc, 0x14, 0xb4, 0xbe, 0x32, 0xf2, 0x3d, 0x3f, 0x32, 0x02, 0x3f, 0x3f, 0xd2, 0x36, 0x94, 0xbe,
  0xfc, 0x34, 0x96, 0x3d, 0x05, 0x66, 0xbf, 0xbf, 0xd9, 0x7c, 0x30, 0x3f, 0x49, 0x25, 0x01, 0xbf,
  0x18, 0xd5, 0xba, 0x3e, 0x51, 0x56, 0x7b, 0x3f, 0xfa, 0xcb, 0x4c, 0xbc, 0xb6, 0x5f, 0x35, 0x3e,
  0x26, 0x64, 0x8e, 0xbd, 0xbf, 0x70, 0x57, 0xbf, 0x16, 0xbe, 0x12, 0x3f, 0x58, 0x1e, 0x95, 0xbe,
  0xd6, 0x55, 0x23, 0x3f, 0x4e, 0xbd, 0x56, 0x3e, 0xc4, 0xd8, 0x74, 0x3e, 0x30, 0xb8, 0x38, 0xbf,
  0xad, 0xbe, 0x2b, 0xbe, 0x4f, 0xda, 0x2e, 0xc0, 0x57, 0x60, 0x59, 0xbf, 0xa4, 0xeb, 0xfc, 0xbe,
  0x42, 0x6a, 0xb3, 0xbf, 0x85, 0x4f, 0x83, 0xbd, 0x5b, 0x17, 0x10, 0x3f, 0x02, 0xfe, 0x6a, 0xbc,
  0x57, 0x4f, 0x3f, 0xbe, 0x97, 0x27, 0x75, 0xc0, 0x82, 0x38, 0x0c, 0x3f, 0x03, 0xbf, 0x3b, 0xc0,
  0x53, 0x63, 0x3f, 0xbf, 0x6d, 0x49, 0x9d, 0x3d, 0x89, 0x38, 0x64, 0x3e, 0x77, 0xf7, 0xba, 0x3f,
  0x8b, 0xbc, 0xf4, 0xbe, 0x7a, 0xcb, 0xe0, 0xbf, 0xec, 0x05, 0xd6, 0xbd, 0xa9, 0xbb, 0xb8, 0xbf,
  0xa3, 0xd2, 0x4e, 0xbf, 0x5e, 0x40, 0x7f, 0xbf, 0x1b, 0xd0, 0x84, 0x3e, 0xe4, 0xcd, 0x4c, 0xbf,
  0xf9, 0x39, 0xc1, 0x3e, 0x3c, 0x95, 0x7c, 0xbe, 0x21, 0xb5, 0x40, 0xbf, 0x78, 0x3d, 0x17, 0x3f,
  0xc2, 0x70, 0xc5, 0xbd, 0xfc, 0x2b, 0x44, 0x3f, 0xff, 0x42, 0x2b, 0xbd, 0xdd, 0x29, 0x04, 0x3f,
  0xd3, 0xcb, 0xd3, 0x3e, 0xd3, 0x0c, 0x1c, 0x3f, 0xfc, 0x1e, 0x9e, 0x3f, 0x27, 0x3b, 0x58, 0x3f,
  0x2a, 0xf0, 0x1e, 0x3c, 0xdc, 0xdc, 0x8b, 0x3f, 0xc6, 0x5c, 0xcc, 0xbe, 0x1a, 0x34, 0xa5, 0x3e,
  0x2e, 0x1f, 0x14, 0xbf, 0x63, 0x89, 0xb8, 0xbd, 0x0b, 0x38, 0xc5, 0x3f, 0xe6, 0xa4, 0xe2, 0x3e,
  0xde, 0x66, 0x30, 0xbf, 0x3f, 0x90, 0x04, 0x3f, 0x42, 0xe4, 0x98, 0xbf, 0xff, 0xea, 0xa2, 0xbf,
  0xaf, 0x80, 0x50, 0xbd, 0xf1, 0x17, 0x2e, 0x3f, 0x01, 0x71, 0x02, 0xbf, 0x58, 0x20, 0x42, 0x3d,
  0x7f, 0x47, 0x0e, 0x3f, 0xbf, 0xe7, 0xf7, 0x3d, 0xf6, 0x9d, 0xc0, 0xbe, 0x04, 0xc1, 0x94, 0x3e,
  0xda, 0xca, 0xe0, 0x3e, 0x90, 0x39, 0x30, 0xbe, 0x5f, 0x04, 0x5e, 0x3e, 0x7c, 0x64, 0xf2, 0x3e,
  0xb9, 0x86, 0xc5, 0x3e, 0x9b, 0x6d, 0x14, 0xbf, 0x37, 0x9e, 0x4e, 0xbf, 0x3f, 0xae, 0xb3, 0x3e,
  0x79, 0x1a, 0x16, 0xbf, 0x0d, 0x5c, 0xe3, 0x3e, 0xb5, 0x94, 0x80, 0x3d, 0x64, 0xb7, 0xdf, 0xbe,
  0x94, 0x05, 0x04, 0xbe, 0x5b, 0xd7, 0x65, 0x3f, 0xac, 0x8c, 0xcd, 0xbf, 0x39, 0xab, 0x4d, 0x3e,
  0x6c, 0xe7, 0x3f, 0xbf, 0x64, 0x6d, 0xc7, 0x3e, 0x10, 0xe3, 0x8c, 0xbe, 0xb6, 0xab, 0xa7, 0x38,
  0x01, 0xe0, 0x03, 0x3d, 0x7a, 0xb0, 0xb5, 0x3e, 0x66, 0x75, 0xfe, 0xbe, 0x42, 0x7a, 0x82, 0xbf,
  0xe4, 0x87, 0xf7, 0x3e, 0xf1, 0xf6, 0xc2, 0xbf, 0xda, 0x76, 0x95, 0xc0, 0xa3, 0x4e, 0x5b, 0xbf,
  0xd6, 0x42, 0x5e, 0x3e, 0xba, 0x71, 0x1b, 0xc0, 0x54, 0xe3, 0x17, 0x3d, 0xa7, 0x9d, 0x90, 0xbf,
  0x78, 0xe9, 0x5b, 0x3e, 0x31, 0x14, 0xdc, 0xbe, 0xf0, 0x7a, 0x72, 0xbf, 0xf4, 0x36, 0x9d, 0x3d,
  0xd1, 0x95, 0x71, 0x3d, 0x89, 0x82, 0x28, 0x3f, 0xe4, 0xe7, 0x2c, 0x3f, 0x28, 0xb0, 0x0f, 0x3f,
  0x8e, 0x43, 0x9b, 0x3f, 0x09, 0xf0, 0x7a, 0xbf, 0xdd, 0x64, 0x1f, 0xbe, 0xab, 0xb5, 0x04, 0x3e,
  0xbb, 0x86, 0x0e, 0xbe, 0x5b, 0x06, 0x85, 0x3f, 0xdc, 0x0d, 0x61, 0x3e, 0x90, 0xbc, 0x5b, 0x3e,
  0x70, 0xff, 0x55, 0x3f, 0xf1, 0xd8, 0xeb, 0xbe, 0xa5, 0x7c, 0x86, 0xbe, 0x16, 0x06, 0x56, 0x3e,
  0x72, 0x28, 0xa7, 0xbe, 0x4a, 0xad, 0x9d, 0x3f, 0xed, 0xc0, 0x5b, 0xbb, 0x72, 0xee, 0x3a, 0x3e,
  0x87, 0x35, 0x5e, 0x3f, 0xc6, 0xee, 0x78, 0xbf, 0xdf, 0x51, 0x7a, 0xbe, 0xc1, 0x3c, 0x06, 0x3e,
  0x0b, 0x75, 0x71, 0xbd, 0x6a, 0x0f, 0x26, 0x3f, 0xa2, 0xb8, 0x81, 0x3e, 0x3e, 0x2c, 0x0b, 0x3e,
  0xce, 0xe0, 0xc5, 0x3f, 0x16, 0x8a, 0x9c, 0xbe, 0xe9, 0x1b, 0xba, 0x3d, 0xc5, 0x64, 0x05, 0xbe,
  0x90, 0x04, 0x39, 0x3e, 0x3e, 0x13, 0x13, 0x3f, 0x58, 0x02, 0x28, 0x3f, 0x85, 0x39, 0x0c, 0x3e,
  0x35, 0x2b, 0x4b, 0x3f, 0x36, 0xf8, 0xb7, 0xbe, 0x56, 0x2a, 0x01, 0x3f, 0x16, 0x58, 0x0c, 0x3d,
  0x62, 0xcc, 0x2b, 0x3d, 0x9e, 0x76, 0x81, 0x3f, 0xf9, 0x65, 0x2c, 0x3f, 0xae, 0x22, 0x1a, 0x3e,
  0x53, 0xb3, 0x9b, 0x3f, 0xb2, 0x70, 0x35, 0xbe, 0x9b, 0xf3, 0xec, 0xbe, 0x53, 0xb1, 0xa8, 0xbd,
  0x4d, 0x99, 0xd7, 0x3e, 0xdf, 0x31, 0x3d, 0x3f, 0x57, 0xc8, 0x58, 0x3e, 0xa9, 0xe9, 0x3a, 0x3f,
  0xc1, 0x80, 0x17, 0x3f, 0x6c, 0x82, 0xaa, 0x3e, 0x95, 0x0c, 0xc5, 0x3e, 0x82, 0x89, 0x0f, 0x3f,
  0xbb, 0x4c, 0x9e, 0x3d, 0x84, 0x15, 0x01, 0x3f, 0xa7, 0x7d, 0xc7, 0x3e, 0xa8, 0x00, 0x25, 0x3e,
  0x95, 0x17, 0x07, 0x3f, 0x92, 0xcf, 0x13, 0xbf, 0xaf, 0xce, 0x88, 0x3e, 0xb3, 0x3a, 0xd5, 0x3e,
  0x94, 0x83, 0x0e, 0xbd, 0x18, 0xf0, 0xf8, 0x3d, 0x72, 0x9a, 0x0a, 0x3f, 0xbb, 0xeb, 0x89, 0xbd,
  0x86, 0x34, 0x6a, 0x3f, 0xff, 0xb7, 0xdc, 0x3e, 0x71, 0xb5, 0xef, 0x3e, 0xe5, 0x02, 0x5a, 0x3f,
  0x70, 0xa1, 0x5a, 0x3f, 0x79, 0x38, 0x52, 0xc0, 0x24, 0x76, 0x79, 0xbf, 0xa5, 0xa6, 0x87, 0xc0,
  0x06, 0xe7, 0x4c, 0xc0, 0x43, 0x8a, 0x30, 0xc0, 0xf8, 0x62, 0x80, 0xbf, 0x7b, 0xd1, 0x8b, 0xbf,
  0xae, 0x26, 0xb5, 0x3e, 0x94, 0x08, 0xa1, 0xc0, 0x25, 0x95, 0xaf, 0xc0, 0x80, 0xa2, 0x4d, 0x3f,
  0xaa, 0x2f, 0x5c, 0xc0, 0x5f, 0xc4, 0xc2, 0x3f, 0xb1, 0xfd, 0x17, 0x40, 0xbc, 0xd4, 0x38, 0xbf,
  0xb6, 0xf8, 0x0c, 0x3f, 0x53, 0xd9, 0xae, 0xbf, 0x9b, 0xf7, 0x9f, 0xbf, 0xd3, 0x1d, 0x90, 0x3e,
  0x2e, 0x68, 0x05, 0xc0, 0x10, 0xb4, 0xe4, 0xbe, 0xdc, 0xe8, 0x91, 0xbe, 0x86, 0x46, 0xb6, 0xbd,
  0x69, 0x15, 0xe2, 0xc0, 0x9c, 0x03, 0x49, 0xbe, 0xed, 0xec, 0x72, 0x3e, 0x77, 0xa1, 0x48, 0xc0,
  0x93, 0x8c, 0xbb, 0xbf, 0x1b, 0xc6, 0x39, 0xc0, 0x03, 0x7a, 0x96, 0xbd, 0x95, 0xb4, 0x2e, 0xbf,
  0x2d, 0x69, 0xbe, 0xbe, 0xd7, 0xd2, 0xe0, 0xbe, 0x42, 0xc4, 0x79, 0xbe, 0xf1, 0x75, 0x81, 0x3f,
  0x53, 0xb4, 0x5d, 0xbf, 0x6a, 0xee, 0xa3, 0x3f, 0x22, 0xf2, 0x0f, 0x40, 0x83, 0xa9, 0x9d, 0xbe,
  0xf3, 0x53, 0x88, 0x3e, 0x59, 0x7d, 0xe1, 0xbf, 0x01, 0xf5, 0xf1, 0xbf, 0x80, 0xaa, 0x10, 0xbc,
  0xd3, 0xcd, 0x8f, 0xbf, 0x2a, 0x58, 0x71, 0xbf, 0x46, 0x06, 0x56, 0x3f, 0x13, 0x3f, 0x9f, 0x3d,
  0x3e, 0xab, 0xa5, 0xbc, 0xca, 0xb3, 0x1f, 0xbc, 0xbe, 0x71, 0x33, 0xbe, 0x42, 0x10, 0xaa, 0x3c,
  0xdf, 0x02, 0xd3, 0xbf, 0xac, 0x76, 0x70, 0xbf, 0x1a, 0x3e, 0xd2, 0xbe, 0x14, 0x88, 0xa9, 0x3e,
  0x32, 0x6a, 0xa9, 0x3d, 0x95, 0xf8, 0x57, 0x3e, 0xb6, 0x0f, 0xf7, 0xbc, 0x2e, 0x91, 0x5f, 0x3f,
  0x6e, 0x24, 0x90, 0x3d, 0x4a, 0x20, 0xcc, 0xbe, 0xcd, 0x23, 0xc9, 0x3f, 0xa9, 0x34, 0x56, 0xbe,
  0xc3, 0x5a, 0xd2, 0x3e, 0xfd, 0x99, 0x52, 0xbc, 0xaa, 0xb6, 0x6e, 0xbe, 0x7f, 0x44, 0xcd, 0x3e,
  0x0f, 0x5f, 0x83, 0x3e, 0x85, 0x21, 0x21, 0xbf, 0xbc, 0xc6, 0x8f, 0xbf, 0x00, 0xc7, 0xc7, 0x3d,
  0xd7, 0xf8, 0xc0, 0xbf, 0x48, 0x02, 0xaa, 0x3f, 0x64, 0x41, 0x3f, 0x3f, 0x84, 0x3b, 0xf8, 0x3b,
  0x51, 0x31, 0xce, 0x3e, 0x94, 0xd5, 0x1c, 0xbd, 0xa7, 0x63, 0x85, 0xbf, 0xcc, 0xe1, 0x35, 0xbe,
  0x2c, 0x65, 0x1c, 0x3e, 0xab, 0x68, 0x3e, 0x3f, 0xfa, 0x11, 0xd4, 0x3f, 0x24, 0xdc, 0x5e, 0xbe,
  0xe2, 0x41, 0x5f, 0x3f, 0x5a, 0xbd, 0x3d, 0xbe, 0xdc, 0xcb, 0x20, 0x3f, 0x10, 0xeb, 0xf8, 0xbe,
  0x7a, 0x10, 0xa4, 0x3c, 0x44, 0xc9, 0x21, 0x3f, 0x86, 0xf9, 0xab, 0x3f, 0x2f, 0x34, 0x5a, 0x3e,
  0xec, 0x58, 0x94, 0x3f, 0x3d, 0x72, 0xb9, 0x3d, 0x87, 0x5b, 0xc5, 0xbd, 0xf5, 0x95, 0x27, 0x3d,
  0x88, 0x9b, 0xf6, 0x3d, 0x82, 0x0c, 0xc6, 0x3e, 0x50, 0x84, 0xfc, 0x3e, 0xe4, 0x43, 0x00, 0x3f,
  0xe3, 0x88, 0x1c, 0x3f, 0xa5, 0xa8, 0xcb, 0xbf, 0x55, 0x5c, 0x50, 0x3f, 0x10, 0x30, 0x59, 0xbe,
  0xca, 0x5c, 0x7a, 0xbe, 0x6f, 0xac, 0x66, 0xbb, 0xdd, 0xaa, 0x42, 0x3e, 0x0e, 0x04, 0x8b, 0x3f,
  0xc5, 0x86, 0x99, 0x3d, 0x40, 0xd8, 0x0b, 0xbe, 0x23, 0xdc, 0xe8, 0x3f, 0x44, 0x07, 0xe7, 0xbf,
  0x09, 0x83, 0xfc, 0x3d, 0x46, 0x77, 0xc0, 0x3e, 0x73, 0xcc, 0x9d, 0x3e, 0x6c, 0xf4, 0x96, 0x3f,
  0xf4, 0xf4, 0x31, 0x3f, 0xa8, 0x82, 0x26, 0xbf, 0xda, 0x27, 0x9f, 0x3f, 0xfa, 0x11, 0xce, 0xbf,
  0x91, 0x80, 0x7e, 0xbe, 0x84, 0x81, 0x55, 0xbf, 0x8f, 0x54, 0xa2, 0xbe, 0xcf, 0xbb, 0x4d, 0xbf,
  0xd5, 0x3d, 0xcd, 0xbf, 0xc4, 0xa7, 0x7d, 0xbe, 0xaa, 0xf2, 0x79, 0x3e, 0xee, 0x59, 0x8c, 0xbf,
  0x00, 0xde, 0x8d, 0x3c, 0xa3, 0xd2, 0xcd, 0xbe, 0x2c, 0xb4, 0x83, 0xbd, 0x10, 0x5d, 0xbc, 0x3e,
  0xc6, 0x16, 0xe9, 0xbf, 0xc7, 0xb3, 0x93, 0xbe, 0x6a, 0xb8, 0xb8, 0x3f, 0x6a, 0x1d, 0x25, 0xc0,
  0xdd, 0x0c, 0x87, 0x3e, 0x4b, 0x43, 0xed, 0xbe, 0x48, 0x67, 0x7b, 0xbf, 0x8b, 0x13, 0x4c, 0x3f,
  0x8a, 0x4f, 0xf7, 0xbf, 0x61, 0xac, 0x0e, 0xbf, 0x1a, 0xb8, 0x89, 0x3f, 0x1d, 0x3d, 0xdb, 0xbd,
  0xa1, 0x67, 0x6a, 0x3f, 0x3b, 0xdd, 0x23, 0xc0, 0x22, 0x85, 0x08, 0x3e, 0xd8, 0x7d, 0x4b, 0xbf,
  0x09, 0xb4, 0x9d, 0xc0, 0xf3, 0x78, 0x87, 0xbe, 0x17, 0x8c, 0xd4, 0x3f, 0x8d, 0x88, 0x68, 0xc0,
  0x5b, 0x74, 0xc4, 0x3d, 0x09, 0xca, 0xf0, 0xbe, 0x22, 0xfd, 0xc4, 0x3d, 0x17, 0x96, 0x5b, 0xbe,
  0x7d, 0x29, 0x20, 0x3f, 0xa2, 0x52, 0x60, 0xbe, 0x93, 0xb5, 0x17, 0x3f, 0x04, 0x52, 0x17, 0xbe,
  0x32, 0x48, 0x2f, 0x3f, 0x62, 0x02, 0x52, 0x3f, 0x5b, 0xae, 0x37, 0x3f, 0xeb, 0x33, 0x7e, 0x3f,
  0xb6, 0xbe, 0xa7, 0x3e, 0x2e, 0x1b, 0xf3, 0xbc, 0x73, 0xab, 0x13, 0xbf, 0xa6, 0x1f, 0x04, 0x3f,
  0x49, 0x1d, 0x25, 0x3f, 0x0c, 0x52, 0x33, 0x3c, 0x15, 0xa1, 0x0e, 0xc0, 0xe8, 0x9d, 0x94, 0x3f,
  0x95, 0x62, 0xe6, 0xbf, 0x6c, 0x9c, 0xc3, 0xbf, 0x56, 0x2d, 0x07, 0x3f, 0x18, 0x88, 0x4a, 0x3e,
  0xbe, 0x3c, 0x8b, 0xbe, 0xff, 0x89, 0x17, 0x3f, 0x9a, 0x57, 0x8f, 0xbe, 0x2a, 0xd8, 0xb0, 0xbe,
  0x39, 0x41, 0x71, 0xbe, 0x31, 0x94, 0x97, 0xbd, 0xd1, 0xc3, 0x3f, 0xbf, 0xe1, 0xdb, 0xb1, 0xbf,
  0xb0, 0x1c, 0x7e, 0x3e, 0xb0, 0x22, 0xda, 0x3c, 0x7a, 0xdf, 0x8d, 0xbd, 0xe8, 0x83, 0xa6, 0xbf,
  0x87, 0xc3, 0x25, 0x3f, 0x5c, 0x44, 0xcf, 0xbe, 0xd4, 0x26, 0x00, 0xbf, 0x65, 0x98, 0xb6, 0xbf,
  0xff, 0x99, 0x28, 0x3f, 0x61, 0x92, 0xe4, 0xbe, 0x13, 0xe2, 0x1c, 0xc0, 0x73, 0xdc, 0x9c, 0x3e,
  0xb8, 0xc7, 0x6b, 0xbe, 0x22, 0x74, 0x1a, 0xc0, 0x57, 0x75, 0x2f, 0xbf, 0x39, 0x61, 0x30, 0xbe,
  0x9c, 0x61, 0x18, 0xc0, 0x1c, 0x9f, 0xef, 0xbd, 0x07, 0x06, 0xdc, 0xbc, 0x7a, 0x9a, 0xdf, 0xbe,
  0x3c, 0xb9, 0x77, 0xbf, 0x2a, 0x2a, 0x0f, 0xc0, 0xab, 0x8f, 0xbf, 0xbe, 0x1e, 0x2f, 0x1b, 0xbf,
  0xd6, 0x09, 0x78, 0xc0, 0xde, 0x5c, 0x3d, 0xc0, 0x8a, 0x5e, 0x00, 0xbf, 0xb7, 0x6e, 0xb5, 0xc0,
  0x70, 0x31, 0x69, 0xbe, 0x7d, 0xe4, 0x35, 0xbf, 0x3d, 0xae, 0xa8, 0x3e, 0xa2, 0x87, 0x53, 0xbf,
  0xba, 0x4c, 0x0d, 0xc0, 0x5c, 0x13, 0x4c, 0xbf, 0xca, 0x71, 0x25, 0x3f, 0xbb, 0x62, 0x28, 0x3f,
  0xbc, 0xbf, 0x80, 0x3f, 0x3e, 0xfa, 0xc6, 0xbe, 0x6f, 0x85, 0x7b, 0x3f, 0x7f, 0x9e, 0x42, 0x3e,
  0xf8, 0x6a, 0x28, 0xbe, 0x5d, 0x84, 0x33, 0xbf, 0x3c, 0xba, 0x1f, 0xbf, 0x13, 0x25, 0x42, 0x3e,
  0x01, 0x0d, 0x8b, 0x3e, 0x09, 0x49, 0xf8, 0xbf, 0x16, 0xef, 0x65, 0xc0, 0xd6, 0x1a, 0x5a, 0xbe,
  0xd6, 0xf9, 0xbe, 0x3e, 0x6f, 0x5d, 0xc2, 0xbe, 0x07, 0x54, 0x36, 0x3f, 0xd1, 0x3e, 0x55, 0xbf,
  0x30, 0xdb, 0x04, 0x3e, 0x2f, 0x8f, 0x2f, 0xc0, 0xfc, 0x86, 0x37, 0xc0, 0x1c, 0xef, 0x0d, 0xbd,
  0x5d, 0x3e, 0x82, 0xbe, 0x63, 0x25, 0x3d, 0xbf, 0x08, 0x42, 0x0a, 0x3f, 0xab, 0x9f, 0x09, 0x3f,
  0x26, 0xb0, 0xb2, 0x3d, 0x97, 0x79, 0x93, 0x3e, 0x0b, 0x2d, 0xc6, 0x3f, 0x2f, 0x23, 0x4d, 0xbf,
  0x06, 0x54, 0xa8, 0x3e, 0xb5, 0x24, 0xb3, 0xbe, 0x3d, 0xba, 0xbd, 0x3e, 0xb1, 0xb4, 0x25, 0x3f,
  0x06, 0x22, 0x1c, 0x3f, 0x9a, 0xd6, 0x3d, 0xbf, 0xb3, 0x50, 0x45, 0xbf, 0xc1, 0xa2, 0xaa, 0xbe,
  0xa1, 0x49, 0x92, 0xbf, 0xbd, 0xe1, 0xac, 0x3e, 0x84, 0x03, 0x44, 0x3e, 0x2f, 0x86, 0x2d, 0xbf,
  0xbe, 0x41, 0x80, 0x3f, 0xb0, 0xbf, 0x34, 0xc0, 0xe3, 0xbf, 0xb8, 0x3e, 0x19, 0xf4, 0x86, 0x3f,
  0x7e, 0xa8, 0xb2, 0x3f, 0xa5, 0x30, 0xdc, 0x3d, 0x98, 0xa7, 0x12, 0x3e, 0xc9, 0xc2, 0xcd, 0x3f,
  0x1e, 0xe1, 0x2e, 0xc0, 0x48, 0x82, 0xb1, 0xbe, 0xd3, 0x3e, 0x1a, 0x3f, 0xac, 0xfa, 0x53, 0xbf,
  0x15, 0xd6, 0x19, 0x3f, 0xcb, 0x3c, 0x99, 0x3e, 0xf2, 0xd7, 0x42, 0x3c, 0xf3, 0x1b, 0x8b, 0xbd,
  0x09, 0xa0, 0x1d, 0xc0, 0x49, 0x1b, 0x35, 0xbf, 0xbc, 0x82, 0x4e, 0x3f, 0x8f, 0x0b, 0xe9, 0xbf,
  0xae, 0x39, 0x08, 0xc0, 0x96, 0xd5, 0x2c, 0x3d, 0x1b, 0x60, 0xfe, 0x3d, 0x11, 0xfc, 0x88, 0xbe,
  0x91, 0x24, 0xa4, 0xbf, 0x67, 0x1d, 0xb6, 0xc0, 0x30, 0x95, 0x37, 0x3f, 0x53, 0x59, 0x62, 0xc0,
  0x2e, 0x83, 0x0b, 0xc0, 0x11, 0x75, 0xa6, 0xbf, 0x1c, 0x83, 0x91, 0xbf, 0x4e, 0xc0, 0xaa, 0x3e,
  0x66, 0x61, 0xf4, 0x3e, 0x8d, 0xe3, 0xbd, 0xbe, 0xbf, 0x11, 0x84, 0x3e, 0x35, 0x31, 0x63, 0xbe,
  0x60, 0x93, 0x26, 0xbe, 0x39, 0x6e, 0x53, 0xc0, 0xb9, 0x81, 0x8e, 0xbf, 0xb9, 0x52, 0x86, 0xbe,
  0xa9, 0x8d, 0xb1, 0x3c, 0x9c, 0x77, 0x10, 0xbf, 0x41, 0x1a, 0xe3, 0x3e, 0x70, 0x1c, 0xff, 0xbe,
  0xbf, 0xfb, 0xcb, 0xbe, 0xe1, 0x6e, 0x4a, 0xbf, 0x10, 0x4f, 0xca, 0xbf, 0xe2, 0x6d, 0x35, 0xbe,
  0xb7, 0x4b, 0xd8, 0xbe, 0xe6, 0xc0, 0xd2, 0xbd, 0x1c, 0xdb, 0x3e, 0x3d, 0x2a, 0x88, 0x66, 0x3d,
  0x19, 0x7a, 0x8e, 0x3e, 0x0d, 0xac, 0xc0, 0xbf, 0xa8, 0x61, 0xa9, 0x3d, 0x9d, 0x4c, 0x89, 0x3e,
  0x59, 0x08, 0xd6, 0xbd, 0x59, 0x4f, 0x76, 0x3f, 0xba, 0xf4, 0x4e, 0x3f, 0x4e, 0xb7, 0xd9, 0x3d,
  0xa8, 0x5f, 0x12, 0xbe, 0x7a, 0x22, 0xf4, 0xbe, 0x63, 0xc4, 0x12, 0xbf, 0x0a, 0xa0, 0x87, 0x3e,
  0x49, 0x72, 0x7a, 0x3e, 0x1b, 0x31, 0x0d, 0x3f, 0x39, 0x88, 0x27, 0x3f, 0xfc, 0xa9, 0x50, 0x3e,
  0x6d, 0xf4, 0x06, 0xbe, 0x6f, 0x2b, 0xd6, 0x3f, 0x62, 0x34, 0x2f, 0xbf, 0xde, 0x74, 0x97, 0x3e,
  0x5d, 0x77, 0x0e, 0xbf, 0x5e, 0xc9, 0x0f, 0x3f, 0x14, 0x95, 0x34, 0x3f, 0x16, 0xdd, 0xdf, 0xbe,
  0x97, 0x6c, 0x46, 0x3e, 0x86, 0xbc, 0x59, 0x3e, 0xdc, 0xe3, 0xc3, 0x3d, 0xc2, 0x1c, 0x56, 0xbf,
  0x07, 0x84, 0x00, 0xbf, 0x0b, 0x43, 0xd5, 0x3f, 0x8c, 0xd2, 0x58, 0xbe, 0x0f, 0x43, 0x2a, 0xbf,
  0x9c, 0x8d, 0x57, 0x3f, 0xd4, 0xe3, 0xf4, 0x3e, 0xf0, 0xb1, 0x12, 0xbe, 0x6d, 0xa2, 0x08, 0xbe,
  0x5b, 0x82, 0xe7, 0x3d, 0x62, 0x76, 0x93, 0x3f, 0xef, 0xc2, 0xf4, 0xbc, 0x47, 0xb6, 0x66, 0xbe,
  0xe1, 0x72, 0xd3, 0x3e, 0x76, 0xbc, 0x14, 0x3f, 0xb1, 0x96, 0xd8, 0xbe, 0x5f, 0xf4, 0x43, 0x3f,
  0xa2, 0x64, 0x00, 0xbe, 0x75, 0x76, 0xa3, 0x3f, 0xb9, 0x1e, 0x87, 0xbc, 0x57, 0xd7, 0xbf, 0xbc,
  0xf8, 0x3f, 0x89, 0xbe, 0x96, 0x47, 0x7c, 0x3f, 0xca, 0x09, 0x85, 0xbf, 0xe2, 0xd0, 0xb2, 0x3b,
  0x40, 0xe9, 0x83, 0x3f, 0x7d, 0x69, 0x7d, 0xbe, 0x0d, 0xfc, 0xf3, 0xbf, 0x55, 0xd3, 0x2b, 0x3e,
  0xbb, 0xce, 0xce, 0xbe, 0x90, 0x61, 0x19, 0x3f, 0x6b, 0xba, 0xff, 0xbf, 0xe4, 0x1e, 0xb5, 0xbe,
  0x8a, 0xe7, 0xc4, 0xbe, 0x1b, 0x96, 0x37, 0xbe, 0x55, 0x59, 0x13, 0x3e, 0x5c, 0xd1, 0xb5, 0xbe,
  0x8e, 0x04, 0xb9, 0xbf, 0xcf, 0x12, 0xfa, 0xbd, 0x51, 0x12, 0x3d, 0xc0, 0x2c, 0x51, 0xbd, 0xbe,
  0x99, 0xbb, 0x97, 0xbf, 0x1c, 0xd3, 0x8a, 0xbf, 0x53, 0xc9, 0x4f, 0x3f, 0x12, 0x39, 0xd8, 0xbf,
  0xb6, 0x55, 0xc6, 0xbf, 0x13, 0x4b, 0x24, 0xbe, 0x1d, 0xc7, 0x49, 0x3d, 0x4c, 0x48, 0x59, 0x3f,
  0x98, 0x4c, 0x87, 0x3f, 0x33, 0x6f, 0xb9, 0xbe, 0x54, 0xad, 0x06, 0xbf, 0x4d, 0x5e, 0x64, 0x3f,
  0x1c, 0xb9, 0x56, 0x3e, 0xab, 0x03, 0x01, 0x3f, 0x54, 0xa7, 0x31, 0xbf, 0x1c, 0x51, 0x73, 0x3f,
  0x48, 0x6f, 0x0a, 0xbf, 0xbe, 0x47, 0xea, 0x3d, 0x57, 0xe9, 0xc7, 0x3e, 0xa3, 0xbe, 0xd7, 0xbe,
  0x84, 0x25, 0x5d, 0xbf, 0xe2, 0x38, 0xe2, 0x3c, 0xc9, 0x80, 0xdd, 0xbf, 0xcf, 0x47, 0x29, 0xbe,
  0x1d, 0x9f, 0x21, 0xbf, 0xc2, 0x07, 0xb3, 0xbf, 0xa3, 0xd6, 0x8a, 0x3f, 0x29, 0x17, 0x31, 0xc0,
  0x42, 0x46, 0x6c, 0xc0, 0x50, 0xe2, 0x7c, 0x3e, 0xdf, 0x87, 0x98, 0x3e, 0xf2, 0xde, 0x7d, 0x3e,
  0xb1, 0xf3, 0xd4, 0x3e, 0x48, 0x5f, 0x1d, 0x3e, 0x63, 0x2b, 0x8d, 0xbe, 0x6a, 0x91, 0x03, 0x3e,
  0x1e, 0xe3, 0x8a, 0x3e, 0x7b, 0xa7, 0x6f, 0xbf, 0xc5, 0xd6, 0x71, 0xbe, 0xa5, 0xb6, 0xbd, 0xbd,
  0x83, 0x63, 0x5a, 0xbe, 0xe4, 0xb0, 0xc4, 0x3d, 0xcc, 0xc3, 0x7c, 0xbe, 0x6b, 0x19, 0x18, 0x3f,
  0x81, 0x1e, 0x08, 0x3f, 0x3a, 0x0f, 0xd2, 0xbe, 0xb5, 0xca, 0xc5, 0xbf, 0xe0, 0xe2, 0xd4, 0x3e,
  0x20, 0x8e, 0xc7, 0xbe, 0x15, 0xca, 0x49, 0x3e, 0x96, 0x0c, 0x4e, 0xbd, 0x42, 0xb6, 0x8d, 0xbd,
  0x4f, 0xc8, 0x18, 0xc0, 0x7a, 0xfe, 0xff, 0xff, 0x04, 0x00, 0x00, 0x00, 0x08, 0x00, 0x00, 0x00,
  0xff, 0xff, 0xff, 0xff, 0x48, 0x00, 0x00, 0x00, 0x8e, 0xfe, 0xff, 0xff, 0x04, 0x00, 0x00, 0x00,
  0x20, 0x00, 0x00, 0x00, 0x30, 0x81, 0x96, 0xbf, 0x67, 0x67, 0x3b, 0x3f, 0xc6, 0x17, 0x7c, 0xc0,
  0xef, 0x5c, 0xba, 0xbf, 0x98, 0x03, 0x4b, 0x3f, 0x5a, 0xd2, 0x6f, 0xc0, 0xb8, 0xc0, 0x3c, 0x3e,
  0x7c, 0x79, 0xfc, 0xbe, 0xba, 0xfe, 0xff, 0xff, 0x04, 0x00, 0x00, 0x00, 0x80, 0x00, 0x00, 0x00,
  0x2e, 0xc1, 0xb5, 0x3e, 0x0a, 0xdd, 0xeb, 0x3f, 0xee, 0xf1, 0xb2, 0x3f, 0x05, 0xe5, 0x07, 0xbe,
  0xf7, 0x9a, 0xd5, 0xbe, 0x4e, 0x27, 0x9c, 0xbf, 0xa7, 0xde, 0x7a, 0x40, 0x72, 0x62, 0x0d, 0x40,
  0x55, 0x99, 0x21, 0xc0, 0x28, 0x23, 0xe2, 0x3f, 0xd5, 0x6e, 0x36, 0x3f, 0x16, 0xb0, 0x67, 0x3f,
  0x38, 0x76, 0x62, 0x3d, 0x02, 0xd7, 0x9a, 0x3e, 0x93, 0x6e, 0xf8, 0xbf, 0xb3, 0x34, 0xc2, 0xbe,
  0xe4, 0x58, 0x63, 0xbe, 0xe8, 0xa1, 0x03, 0x40, 0x56, 0xb0, 0x3b, 0x3e, 0xb8, 0x41, 0xe0, 0x3d,
  0xee, 0x75, 0x24, 0x40, 0x61, 0xe1, 0x71, 0xc0, 0x75, 0x68, 0x2d, 0xc0, 0x88, 0xd4, 0xaf, 0x3f,
  0xd9, 0xb8, 0x95, 0xbf, 0x04, 0x67, 0xc7, 0xc0, 0xd1, 0x76, 0x85, 0xbf, 0x73, 0xec, 0xf8, 0xbf,
  0x11, 0x62, 0x45, 0x3f, 0x57, 0xab, 0x40, 0xc0, 0x92, 0x4b, 0x1f, 0xbf, 0xd5, 0xb3, 0x46, 0xbf,
  0x46, 0xff, 0xff, 0xff, 0x04, 0x00, 0x00, 0x00, 0x20, 0x00, 0x00, 0x00, 0x7e, 0x1a, 0xe8, 0x3f,
  0x80, 0xa0, 0xd5, 0x40, 0x41, 0xd7, 0x84, 0xbf, 0x49, 0xae, 0x75, 0xc0, 0x9c, 0x8e, 0xa3, 0xbd,
  0xaf, 0x7b, 0x9b, 0xc0, 0x64, 0x1f, 0x04, 0xc0, 0xcb, 0xc6, 0x18, 0x3f, 0x70, 0xf8, 0xff, 0xff,
  0x74, 0xf8, 0xff, 0xff, 0x0f, 0x00, 0x00, 0x00, 0x4d, 0x4c, 0x49, 0x52, 0x20, 0x43, 0x6f, 0x6e,
  0x76, 0x65, 0x72, 0x74, 0x65, 0x64, 0x2e, 0x00, 0x01, 0x00, 0x00, 0x00, 0x14, 0x00, 0x00, 0x00,
  0x00, 0x00, 0x0e, 0x00, 0x18, 0x00, 0x14, 0x00, 0x10, 0x00, 0x0c, 0x00, 0x08, 0x00, 0x04, 0x00,
  0x0e, 0x00, 0x00, 0x00, 0x14, 0x00, 0x00, 0x00, 0x1c, 0x00, 0x00, 0x00, 0xcc, 0x01, 0x00, 0x00,
  0xd0, 0x01, 0x00, 0x00, 0xd4, 0x01, 0x00, 0x00, 0x04, 0x00, 0x00, 0x00, 0x6d, 0x61, 0x69, 0x6e,
  0x00, 0x00, 0x00, 0x00, 0x06, 0x00, 0x00, 0x00, 0x64, 0x01, 0x00, 0x00, 0x00, 0x01, 0x00, 0x00,
  0xc8, 0x00, 0x00, 0x00, 0x78, 0x00, 0x00, 0x00, 0x40, 0x00, 0x00, 0x00, 0x04, 0x00, 0x00, 0x00,
  0x22, 0xff, 0xff, 0xff, 0x1c, 0x00, 0x00, 0x00, 0x00, 0x00, 0x00, 0x09, 0x1c, 0x00, 0x00, 0x00,
  0x20, 0x00, 0x00, 0x00, 0x04, 0x00, 0x00, 0x00, 0x00, 0x00, 0x06, 0x00, 0x08, 0x00, 0x04, 0x00,
  0x06, 0x00, 0x00, 0x00, 0x00, 0x00, 0x80, 0x3f, 0x01, 0x00, 0x00, 0x00, 0x0d, 0x00, 0x00, 0x00,
  0x01, 0x00, 0x00, 0x00, 0x0c, 0x00, 0x00, 0x00, 0x5a, 0xff, 0xff, 0xff, 0x14, 0x00, 0x00, 0x00,
  0x00, 0x00, 0x00, 0x08, 0x10, 0x00, 0x00, 0x00, 0x14, 0x00, 0x00, 0x00, 0x03, 0x00, 0x00, 0x00,
  0x34, 0xf9, 0xff, 0xff, 0x01, 0x00, 0x00, 0x00, 0x0c, 0x00, 0x00, 0x00, 0x03, 0x00, 0x00, 0x00,
  0x0b, 0x00, 0x00, 0x00, 0x06, 0x00, 0x00, 0x00, 0x01, 0x00, 0x00, 0x00, 0x8e, 0xff, 0xff, 0xff,
  0x1c, 0x00, 0x00, 0x00, 0x00, 0x00, 0x00, 0x08, 0x1c, 0x00, 0x00, 0x00, 0x20, 0x00, 0x00, 0x00,
  0x03, 0x00, 0x00, 0x00, 0x00, 0x00, 0x06, 0x00, 0x08, 0x00, 0x07, 0x00, 0x06, 0x00, 0x00, 0x00,
  0x00, 0x00, 0x00, 0x01, 0x01, 0x00, 0x00, 0x00, 0x0b, 0x00, 0x00, 0x00, 0x03, 0x00, 0x00, 0x00,
  0x0a, 0x00, 0x00, 0x00, 0x05, 0x00, 0x00, 0x00, 0x02, 0x00, 0x00, 0x00, 0x00, 0x00, 0x0a, 0x00,
  0x10, 0x00, 0x0c, 0x00, 0x08, 0x00, 0x04, 0x00, 0x0a, 0x00, 0x00, 0x00, 0x0c, 0x00, 0x00, 0x00,
  0x10, 0x00, 0x00, 0x00, 0x02, 0x00, 0x00, 0x00, 0x01, 0x00, 0x00, 0x00, 0x0a, 0x00, 0x00, 0x00,
  0x02, 0x00, 0x00, 0x00, 0x09, 0x00, 0x00, 0x00, 0x04, 0x00, 0x00, 0x00, 0x00, 0x00, 0x0e, 0x00,
  0x1a, 0x00, 0x14, 0x00, 0x10, 0x00, 0x0c, 0x00, 0x0b, 0x00, 0x04, 0x00, 0x0e, 0x00, 0x00, 0x00,
  0x24, 0x00, 0x00, 0x00, 0x00, 0x00, 0x00, 0x05, 0x34, 0x00, 0x00, 0x00, 0x38, 0x00, 0x00, 0x00,
  0x01, 0x00, 0x00, 0x00, 0x00, 0x00, 0x0e, 0x00, 0x18, 0x00, 0x17, 0x00, 0x10, 0x00, 0x0c, 0x00,
  0x08, 0x00, 0x04, 0x00, 0x0e, 0x00, 0x00, 0x00, 0x02, 0x00, 0x00, 0x00, 0x02, 0x00, 0x00, 0x00,
  0x02, 0x00, 0x00, 0x00, 0x02, 0x00, 0x00, 0x00, 0x00, 0x00, 0x00, 0x01, 0x01, 0x00, 0x00, 0x00,
  0x09, 0x00, 0x00, 0x00, 0x01, 0x00, 0x00, 0x00, 0x08, 0x00, 0x00, 0x00, 0x00, 0x00, 0x0e, 0x00,
  0x14, 0x00, 0x00, 0x00, 0x10, 0x00, 0x0c, 0x00, 0x0b, 0x00, 0x04, 0x00, 0x0e, 0x00, 0x00, 0x00,
  0x1c, 0x00, 0x00, 0x00, 0x00, 0x00, 0x00, 0x01, 0x28, 0x00, 0x00, 0x00, 0x2c, 0x00, 0x00, 0x00,
  0x0c, 0x00, 0x14, 0x00, 0x13, 0x00, 0x0c, 0x00, 0x08, 0x00, 0x07, 0x00, 0x0c, 0x00, 0x00, 0x00,
  0x00, 0x00, 0x00, 0x01, 0x01, 0x00, 0x00, 0x00, 0x01, 0x00, 0x00, 0x00, 0x00, 0x00, 0x00, 0x01,
  0x01, 0x00, 0x00, 0x00, 0x08, 0x00, 0x00, 0x00, 0x03, 0x00, 0x00, 0x00, 0x00, 0x00, 0x00, 0x00,
  0x07, 0x00, 0x00, 0x00, 0x03, 0x00, 0x00, 0x00, 0x01, 0x00, 0x00, 0x00, 0x0d, 0x00, 0x00, 0x00,
  0x01, 0x00, 0x00, 0x00, 0x00, 0x00, 0x00, 0x00, 0x0e, 0x00, 0x00, 0x00, 0x44, 0x05, 0x00, 0x00,
  0xf8, 0x04, 0x00, 0x00, 0xb4, 0x04, 0x00, 0x00, 0x80, 0x04, 0x00, 0x00, 0x30, 0x04, 0x00, 0x00,
  0xd0, 0x03, 0x00, 0x00, 0x80, 0x03, 0x00, 0x00, 0x28, 0x03, 0x00, 0x00, 0x64, 0x02, 0x00, 0x00,
  0xec, 0x01, 0x00, 0x00, 0x88, 0x01, 0x00, 0x00, 0xe4, 0x00, 0x00, 0x00, 0x5c, 0x00, 0x00, 0x00,
  0x04, 0x00, 0x00, 0x00, 0x08, 0xfb, 0xff, 0xff, 0x14, 0x00, 0x00, 0x00, 0x1c, 0x00, 0x00, 0x00,
  0x1c, 0x00, 0x00, 0x00, 0x0e, 0x00, 0x00, 0x00, 0x34, 0x00, 0x00, 0x00, 0x02, 0x00, 0x00, 0x00,
  0xff, 0xff, 0xff, 0xff, 0x08, 0x00, 0x00, 0x00, 0xec, 0xfa, 0xff, 0xff, 0x19, 0x00, 0x00, 0x00,
  0x53, 0x74, 0x61, 0x74, 0x65, 0x66, 0x75, 0x6c, 0x50, 0x61, 0x72, 0x74, 0x69, 0x74, 0x69, 0x6f,
  0x6e, 0x65, 0x64, 0x43, 0x61, 0x6c, 0x6c, 0x3a, 0x30, 0x00, 0x00, 0x00, 0x02, 0x00, 0x00, 0x00,
  0x01, 0x00, 0x00, 0x00, 0x08, 0x00, 0x00, 0x00, 0x5c, 0xfb, 0xff, 0xff, 0x14, 0x00, 0x00, 0x00,
  0x1c, 0x00, 0x00, 0x00, 0x1c, 0x00, 0x00, 0x00, 0x0d, 0x00, 0x00, 0x00, 0x64, 0x00, 0x00, 0x00,
  0x02, 0x00, 0x00, 0x00, 0xff, 0xff, 0xff, 0xff, 0x08, 0x00, 0x00, 0x00, 0x40, 0xfb, 0xff, 0xff,
  0x48, 0x00, 0x00, 0x00, 0x43, 0x4e, 0x4e, 0x32, 0x44, 0x5f, 0x53, 0x54, 0x5f, 0x48, 0x61, 0x6e,
  0x64, 0x50, 0x6f, 0x73, 0x74, 0x75, 0x72, 0x65, 0x2f, 0x64, 0x65, 0x6e, 0x73, 0x65, 0x5f, 0x31,
  0x2f, 0x4d, 0x61, 0x74, 0x4d, 0x75, 0x6c, 0x3b, 0x43, 0x4e, 0x4e, 0x32, 0x44, 0x5f, 0x53, 0x54,
  0x5f, 0x48, 0x61, 0x6e, 0x64, 0x50, 0x6f, 0x73, 0x74, 0x75, 0x72, 0x65, 0x2f, 0x64, 0x65, 0x6e,
  0x73, 0x65, 0x5f, 0x31, 0x2f, 0x42, 0x69, 0x61, 0x73, 0x41, 0x64, 0x64, 0x00, 0x00, 0x00, 0x00,
  0x02, 0x00, 0x00, 0x00, 0x01, 0x00, 0x00, 0x00, 0x08, 0x00, 0x00, 0x00, 0xe0, 0xfb, 0xff, 0xff,
  0x14, 0x00, 0x00, 0x00, 0x1c, 0x00, 0x00, 0x00, 0x1c, 0x00, 0x00, 0x00, 0x0c, 0x00, 0x00, 0x00,
  0x80, 0x00, 0x00, 0x00, 0x02, 0x00, 0x00, 0x00, 0xff, 0xff, 0xff, 0xff, 0x20, 0x00, 0x00, 0x00,
  0xc4, 0xfb, 0xff, 0xff, 0x64, 0x00, 0x00, 0x00, 0x43, 0x4e, 0x4e, 0x32, 0x44, 0x5f, 0x53, 0x54,
  0x5f, 0x48, 0x61, 0x6e, 0x64, 0x50, 0x6f, 0x73, 0x74, 0x75, 0x72, 0x65, 0x2f, 0x64, 0x65, 0x6e,
  0x73, 0x65, 0x2f, 0x4d, 0x61, 0x74, 0x4d, 0x75, 0x6c, 0x3b, 0x43, 0x4e, 0x4e, 0x32, 0x44, 0x5f,
  0x53, 0x54, 0x5f, 0x48, 0x61, 0x6e, 0x64, 0x50, 0x6f, 0x73, 0x74, 0x75, 0x72, 0x65, 0x2f, 0x64,
  0x65, 0x6e, 0x73, 0x65, 0x2f, 0x52, 0x65, 0x6c, 0x75, 0x3b, 0x43, 0x4e, 0x4e, 0x32, 0x44, 0x5f,
  0x53, 0x54, 0x5f, 0x48, 0x61, 0x6e, 0x64, 0x50, 0x6f, 0x73, 0x74, 0x75, 0x72, 0x65, 0x2f, 0x64,
  0x65, 0x6e, 0x73, 0x65, 0x2f, 0x42, 0x69, 0x61, 0x73, 0x41, 0x64, 0x64, 0x00, 0x00, 0x00, 0x00,
  0x02, 0x00, 0x00, 0x00, 0x01, 0x00, 0x00, 0x00, 0x20, 0x00, 0x00, 0x00, 0x80, 0xfc, 0xff, 0xff,
  0x14, 0x00, 0x00, 0x00, 0x1c, 0x00, 0x00, 0x00, 0x1c, 0x00, 0x00, 0x00, 0x0b, 0x00, 0x00, 0x00,
  0x40, 0x00, 0x00, 0x00, 0x02, 0x00, 0x00, 0x00, 0xff, 0xff, 0xff, 0xff, 0x48, 0x00, 0x00, 0x00,
  0x64, 0xfc, 0xff, 0xff, 0x24, 0x00, 0x00, 0x00, 0x43, 0x4e, 0x4e, 0x32, 0x44, 0x5f, 0x53, 0x54,
  0x5f, 0x48, 0x61, 0x6e, 0x64, 0x50, 0x6f, 0x73, 0x74, 0x75, 0x72, 0x65, 0x2f, 0x66, 0x6c, 0x61,
  0x74, 0x74, 0x65, 0x6e, 0x2f, 0x52, 0x65, 0x73, 0x68, 0x61, 0x70, 0x65, 0x00, 0x00, 0x00, 0x00,
  0x02, 0x00, 0x00, 0x00, 0x01, 0x00, 0x00, 0x00, 0x48, 0x00, 0x00, 0x00, 0xe0, 0xfc, 0xff, 0xff,
  0x14, 0x00, 0x00, 0x00, 0x24, 0x00, 0x00, 0x00, 0x24, 0x00, 0x00, 0x00, 0x0a, 0x00, 0x00, 0x00,
  0x4c, 0x00, 0x00, 0x00, 0x04, 0x00, 0x00, 0x00, 0xff, 0xff, 0xff, 0xff, 0x03, 0x00, 0x00, 0x00,
  0x03, 0x00, 0x00, 0x00, 0x08, 0x00, 0x00, 0x00, 0xcc, 0xfc, 0xff, 0xff, 0x2a, 0x00, 0x00, 0x00,
  0x43, 0x4e, 0x4e, 0x32, 0x44, 0x5f, 0x53, 0x54, 0x5f, 0x48, 0x61, 0x6e, 0x64, 0x50, 0x6f, 0x73,
  0x74, 0x75, 0x72, 0x65, 0x2f, 0x6d, 0x61, 0x78, 0x5f, 0x70, 0x6f, 0x6f, 0x6c, 0x69, 0x6e, 0x67,
  0x32, 0x64, 0x2f, 0x4d, 0x61, 0x78, 0x50, 0x6f, 0x6f, 0x6c, 0x00, 0x00, 0x04, 0x00, 0x00, 0x00,
  0x01, 0x00, 0x00, 0x00, 0x03, 0x00, 0x00, 0x00, 0x03, 0x00, 0x00, 0x00, 0x08, 0x00, 0x00, 0x00,
  0x54, 0xfd, 0xff, 0xff, 0x14, 0x00, 0x00, 0x00, 0x24, 0x00, 0x00, 0x00, 0x24, 0x00, 0x00, 0x00,
  0x09, 0x00, 0x00, 0x00, 0x98, 0x00, 0x00, 0x00, 0x04, 0x00, 0x00, 0x00, 0xff, 0xff, 0xff, 0xff,
  0x06, 0x00, 0x00, 0x00, 0x06, 0x00, 0x00, 0x00, 0x08, 0x00, 0x00, 0x00, 0x40, 0xfd, 0xff, 0xff,
  0x77, 0x00, 0x00, 0x00, 0x43, 0x4e, 0x4e, 0x32, 0x44, 0x5f, 0x53, 0x54, 0x5f, 0x48, 0x61, 0x6e,
  0x64, 0x50, 0x6f, 0x73, 0x74, 0x75, 0x72, 0x65, 0x2f, 0x61, 0x63, 0x74, 0x69, 0x76, 0x61, 0x74,
  0x69, 0x6f, 0x6e, 0x2f, 0x52, 0x65, 0x6c, 0x75, 0x3b, 0x43, 0x4e, 0x4e, 0x32, 0x44, 0x5f, 0x53,
  0x54, 0x5f, 0x48, 0x61, 0x6e, 0x64, 0x50, 0x6f, 0x73, 0x74, 0x75, 0x72, 0x65, 0x2f, 0x63, 0x6f,
  0x6e, 0x76, 0x32, 0x64, 0x2f, 0x42, 0x69, 0x61, 0x73, 0x41, 0x64, 0x64, 0x3b, 0x43, 0x4e, 0x4e,
  0x32, 0x44, 0x5f, 0x53, 0x54, 0x5f, 0x48, 0x61, 0x6e, 0x64, 0x50, 0x6f, 0x73, 0x74, 0x75, 0x72,
  0x65, 0x2f, 0x63, 0x6f, 0x6e, 0x76, 0x32, 0x64, 0x2f, 0x43, 0x6f, 0x6e, 0x76, 0x32, 0x44, 0x3b,
  0x63, 0x6f, 0x6e, 0x76, 0x32, 0x64, 0x2f, 0x62, 0x69, 0x61, 0x73, 0x00, 0x04, 0x00, 0x00, 0x00,
  0x01, 0x00, 0x00, 0x00, 0x06, 0x00, 0x00, 0x00, 0x06, 0x00, 0x00, 0x00, 0x08, 0x00, 0x00, 0x00,
  0x56, 0xfe, 0xff, 0xff, 0x10, 0x00, 0x00, 0x00, 0x10, 0x00, 0x00, 0x00, 0x08, 0x00, 0x00, 0x00,
  0x30, 0x00, 0x00, 0x00, 0xe8, 0xfd, 0xff, 0xff, 0x22, 0x00, 0x00, 0x00, 0x43, 0x4e, 0x4e, 0x32,
  0x44, 0x5f, 0x53, 0x54, 0x5f, 0x48, 0x61, 0x6e, 0x64, 0x50, 0x6f, 0x73, 0x74, 0x75, 0x72, 0x65,
  0x2f, 0x63, 0x6f, 0x6e, 0x76, 0x32, 0x64, 0x2f, 0x43, 0x6f, 0x6e, 0x76, 0x32, 0x44, 0x00, 0x00,
  0x04, 0x00, 0x00, 0x00, 0x08, 0x00, 0x00, 0x00, 0x03, 0x00, 0x00, 0x00, 0x03, 0x00, 0x00, 0x00,
  0x02, 0x00, 0x00, 0x00, 0xaa, 0xfe, 0xff, 0xff, 0x10, 0x00, 0x00, 0x00, 0x10, 0x00, 0x00, 0x00,
  0x07, 0x00, 0x00, 0x00, 0x30, 0x00, 0x00, 0x00, 0x3c, 0xfe, 0xff, 0xff, 0x23, 0x00, 0x00, 0x00,
  0x43, 0x4e, 0x4e, 0x32, 0x44, 0x5f, 0x53, 0x54, 0x5f, 0x48, 0x61, 0x6e, 0x64, 0x50, 0x6f, 0x73,
  0x74, 0x75, 0x72, 0x65, 0x2f, 0x64, 0x65, 0x6e, 0x73, 0x65, 0x5f, 0x31, 0x2f, 0x4d, 0x61, 0x74,
  0x4d, 0x75, 0x6c, 0x00, 0x02, 0x00, 0x00, 0x00, 0x08, 0x00, 0x00, 0x00, 0x20, 0x00, 0x00, 0x00,
  0xf6, 0xfe, 0xff, 0xff, 0x10, 0x00, 0x00, 0x00, 0x10, 0x00, 0x00, 0x00, 0x06, 0x00, 0x00, 0x00,
  0x30, 0x00, 0x00, 0x00, 0x88, 0xfe, 0xff, 0xff, 0x21, 0x00, 0x00, 0x00, 0x43, 0x4e, 0x4e, 0x32,
  0x44, 0x5f, 0x53, 0x54, 0x5f, 0x48, 0x61, 0x6e, 0x64, 0x50, 0x6f, 0x73, 0x74, 0x75, 0x72, 0x65,
  0x2f, 0x64, 0x65, 0x6e, 0x73, 0x65, 0x2f, 0x4d, 0x61, 0x74, 0x4d, 0x75, 0x6c, 0x00, 0x00, 0x00,
  0x02, 0x00, 0x00, 0x00, 0x20, 0x00, 0x00, 0x00, 0x48, 0x00, 0x00, 0x00, 0x00, 0x00, 0x0e, 0x00,
  0x18, 0x00, 0x14, 0x00, 0x13, 0x00, 0x0c, 0x00, 0x08, 0x00, 0x04, 0x00, 0x0e, 0x00, 0x00, 0x00,
  0x14, 0x00, 0x00, 0x00, 0x14, 0x00, 0x00, 0x00, 0x05, 0x00, 0x00, 0x00, 0x00, 0x00, 0x00, 0x02,
  0x30, 0x00, 0x00, 0x00, 0xe8, 0xfe, 0xff, 0xff, 0x22, 0x00, 0x00, 0x00, 0x43, 0x4e, 0x4e, 0x32,
  0x44, 0x5f, 0x53, 0x54, 0x5f, 0x48, 0x61, 0x6e, 0x64, 0x50, 0x6f, 0x73, 0x74, 0x75, 0x72, 0x65,
  0x2f, 0x66, 0x6c, 0x61, 0x74, 0x74, 0x65, 0x6e, 0x2f, 0x43, 0x6f, 0x6e, 0x73, 0x74, 0x00, 0x00,
  0x01, 0x00, 0x00, 0x00, 0x02, 0x00, 0x00, 0x00, 0x9e, 0xff, 0xff, 0xff, 0x10, 0x00, 0x00, 0x00,
  0x10, 0x00, 0x00, 0x00, 0x04, 0x00, 0x00, 0x00, 0x18, 0x00, 0x00, 0x00, 0x30, 0xff, 0xff, 0xff,
  0x0b, 0x00, 0x00, 0x00, 0x63, 0x6f, 0x6e, 0x76, 0x32, 0x64, 0x2f, 0x62, 0x69, 0x61, 0x73, 0x00,
  0x01, 0x00, 0x00, 0x00, 0x08, 0x00, 0x00, 0x00, 0xce, 0xff, 0xff, 0xff, 0x10, 0x00, 0x00, 0x00,
  0x10, 0x00, 0x00, 0x00, 0x03, 0x00, 0x00, 0x00, 0x18, 0x00, 0x00, 0x00, 0x60, 0xff, 0xff, 0xff,
  0x0a, 0x00, 0x00, 0x00, 0x64, 0x65, 0x6e, 0x73, 0x65, 0x2f, 0x62, 0x69, 0x61, 0x73, 0x00, 0x00,
  0x01, 0x00, 0x00, 0x00, 0x20, 0x00, 0x00, 0x00, 0x00, 0x00, 0x0e, 0x00, 0x14, 0x00, 0x10, 0x00,
  0x00, 0x00, 0x0c, 0x00, 0x08, 0x00, 0x04, 0x00, 0x0e, 0x00, 0x00, 0x00, 0x10, 0x00, 0x00, 0x00,
  0x10, 0x00, 0x00, 0x00, 0x02, 0x00, 0x00, 0x00, 0x1c, 0x00, 0x00, 0x00, 0xa0, 0xff, 0xff, 0xff,
  0x0c, 0x00, 0x00, 0x00, 0x64, 0x65, 0x6e, 0x73, 0x65, 0x5f, 0x31, 0x2f, 0x62, 0x69, 0x61, 0x73,
  0x00, 0x00, 0x00, 0x00, 0x01, 0x00, 0x00, 0x00, 0x08, 0x00, 0x00, 0x00, 0x14, 0x00, 0x18, 0x00,
  0x14, 0x00, 0x00, 0x00, 0x10, 0x00, 0x0c, 0x00, 0x08, 0x00, 0x00, 0x00, 0x00, 0x00, 0x04, 0x00,
  0x14, 0x00, 0x00, 0x00, 0x14, 0x00, 0x00, 0x00, 0x28, 0x00, 0x00, 0x00, 0x28, 0x00, 0x00, 0x00,
  0x01, 0x00, 0x00, 0x00, 0x40, 0x00, 0x00, 0x00, 0x04, 0x00, 0x00, 0x00, 0xff, 0xff, 0xff, 0xff,
  0x08, 0x00, 0x00, 0x00, 0x08, 0x00, 0x00, 0x00, 0x02, 0x00, 0x00, 0x00, 0x04, 0x00, 0x04, 0x00,
  0x04, 0x00, 0x00, 0x00, 0x19, 0x00, 0x00, 0x00, 0x73, 0x65, 0x72, 0x76, 0x69, 0x6e, 0x67, 0x5f,
  0x64, 0x65, 0x66, 0x61, 0x75, 0x6c, 0x74, 0x5f, 0x69, 0x6e, 0x70, 0x75, 0x74, 0x5f, 0x31, 0x3a,
  0x30, 0x00, 0x00, 0x00, 0x04, 0x00, 0x00, 0x00, 0x01, 0x00, 0x00, 0x00, 0x08, 0x00, 0x00, 0x00,
  0x08, 0x00, 0x00, 0x00, 0x02, 0x00, 0x00, 0x00, 0x05, 0x00, 0x00, 0x00, 0x50, 0x00, 0x00, 0x00,
  0x34, 0x00, 0x00, 0x00, 0x24, 0x00, 0x00, 0x00, 0x14, 0x00, 0x00, 0x00, 0x04, 0x00, 0x00, 0x00,
  0xd0, 0xff, 0xff, 0xff, 0x19, 0x00, 0x00, 0x00, 0x00, 0x00, 0x00, 0x19, 0xdc, 0xff, 0xff, 0xff,
  0x09, 0x00, 0x00, 0x00, 0x00, 0x00, 0x00, 0x09, 0xe8, 0xff, 0xff, 0xff, 0x16, 0x00, 0x00, 0x00,
  0x00, 0x00, 0x00, 0x16, 0xf4, 0xff, 0xff, 0xff, 0x11, 0x00, 0x00, 0x00, 0x00, 0x00, 0x00, 0x11,
  0x0c, 0x00, 0x0c, 0x00, 0x0b, 0x00, 0x00, 0x00, 0x00, 0x00, 0x04, 0x00, 0x0c, 0x00, 0x00, 0x00,
  0x03, 0x00, 0x00, 0x00, 0x00, 0x00, 0x00, 0x03,
};

const unsigned int g_model_len = 13528;

#endif  // MODEL_DATA_H
