// TFLite model for Arduino - Hand Posture Recognition
// Input: (8, 8, 2) INT8 - ToF sensor data
// Output: 8 classes INT8

#ifndef HAND_POSTURE_MODEL_H
#define HAND_POSTURE_MODEL_H

const unsigned int hand_posture_model_len = 6056;
const unsigned char hand_posture_model[] = {
  0x20, 0x00, 0x00, 0x00, 0x54, 0x46, 0x4c, 0x33, 0x00, 0x00, 0x00, 0x00,
  0x14, 0x00, 0x20, 0x00, 0x1c, 0x00, 0x18, 0x00, 0x14, 0x00, 0x10, 0x00,
  0x0c, 0x00, 0x00, 0x00, 0x08, 0x00, 0x04, 0x00, 0x14, 0x00, 0x00, 0x00,
  0x1c, 0x00, 0x00, 0x00, 0x80, 0x00, 0x00, 0x00, 0xb0, 0x00, 0x00, 0x00,
  0xd8, 0x0c, 0x00, 0x00, 0xe8, 0x0c, 0x00, 0x00, 0xf4, 0x16, 0x00, 0x00,
  0x03, 0x00, 0x00, 0x00, 0x01, 0x00, 0x00, 0x00, 0x04, 0x00, 0x00, 0x00,
  0x26, 0xf2, 0xff, 0xff, 0x0c, 0x00, 0x00, 0x00, 0x1c, 0x00, 0x00, 0x00,
  0x38, 0x00, 0x00, 0x00, 0x0f, 0x00, 0x00, 0x00, 0x73, 0x65, 0x72, 0x76,
  0x69, 0x6e, 0x67, 0x5f, 0x64, 0x65, 0x66, 0x61, 0x75, 0x6c, 0x74, 0x00,
  0x01, 0x00, 0x00, 0x00, 0x04, 0x00, 0x00, 0x00, 0xc4, 0xff, 0xff, 0xff,
  0x0d, 0x00, 0x00, 0x00, 0x04, 0x00, 0x00, 0x00, 0x07, 0x00, 0x00, 0x00,
  0x64, 0x65, 0x6e, 0x73, 0x65, 0x5f, 0x31, 0x00, 0x01, 0x00, 0x00, 0x00,
  0x04, 0x00, 0x00, 0x00, 0x06, 0xf3, 0xff, 0xff, 0x04, 0x00, 0x00, 0x00,
  0x07, 0x00, 0x00, 0x00, 0x69, 0x6e, 0x70, 0x75, 0x74, 0x5f, 0x31, 0x00,
  0x01, 0x00, 0x00, 0x00, 0x0c, 0x00, 0x00, 0x00, 0x08, 0x00, 0x0c, 0x00,
  0x08, 0x00, 0x04, 0x00, 0x08, 0x00, 0x00, 0x00, 0x0f, 0x00, 0x00, 0x00,
  0x04, 0x00, 0x00, 0x00, 0x13, 0x00, 0x00, 0x00, 0x6d, 0x69, 0x6e, 0x5f,
  0x72, 0x75, 0x6e, 0x74, 0x69, 0x6d, 0x65, 0x5f, 0x76, 0x65, 0x72, 0x73,
  0x69, 0x6f, 0x6e, 0x00, 0x10, 0x00, 0x00, 0x00, 0x24, 0x0c, 0x00, 0x00,
  0x1c, 0x0c, 0x00, 0x00, 0x04, 0x0c, 0x00, 0x00, 0x64, 0x0b, 0x00, 0x00,
  0x34, 0x0b, 0x00, 0x00, 0x24, 0x02, 0x00, 0x00, 0x94, 0x01, 0x00, 0x00,
  0x84, 0x00, 0x00, 0x00, 0x54, 0x00, 0x00, 0x00, 0x4c, 0x00, 0x00, 0x00,
  0x44, 0x00, 0x00, 0x00, 0x3c, 0x00, 0x00, 0x00, 0x34, 0x00, 0x00, 0x00,
  0x2c, 0x00, 0x00, 0x00, 0x24, 0x00, 0x00, 0x00, 0x04, 0x00, 0x00, 0x00,
  0x92, 0xf3, 0xff, 0xff, 0x04, 0x00, 0x00, 0x00, 0x10, 0x00, 0x00, 0x00,
  0x31, 0x2e, 0x31, 0x34, 0x2e, 0x30, 0x00, 0x00, 0x00, 0x00, 0x00, 0x00,
  0x00, 0x00, 0x00, 0x00, 0xec, 0xea, 0xff, 0xff, 0xf0, 0xea, 0xff, 0xff,
  0xf4, 0xea, 0xff, 0xff, 0xf8, 0xea, 0xff, 0xff, 0xfc, 0xea, 0xff, 0xff,
  0x00, 0xeb, 0xff, 0xff, 0xc6, 0xf3, 0xff, 0xff, 0x04, 0x00, 0x00, 0x00,
  0x20, 0x00, 0x00, 0x00, 0x23, 0x00, 0x00, 0x00, 0x80, 0x00, 0x00, 0x00,
  0xec, 0xff, 0xff, 0xff, 0xb6, 0xff, 0xff, 0xff, 0xfe, 0xff, 0xff, 0xff,
  0xa3, 0xff, 0xff, 0xff, 0xd8, 0xff, 0xff, 0xff, 0x0b, 0x00, 0x00, 0x00,
  0xf2, 0xf3, 0xff, 0xff, 0x04, 0x00, 0x00, 0x00, 0x00, 0x01, 0x00, 0x00,
  0x06, 0x04, 0x01, 0xe1, 0xc2, 0x16, 0xf2, 0xee, 0x05, 0xef, 0xd7, 0xef,
  0xfc, 0xf8, 0xd9, 0xe3, 0xf7, 0xed, 0xc3, 0x82, 0xd5, 0xf7, 0xf6, 0xee,
  0xf7, 0xf3, 0xeb, 0xe7, 0xb3, 0xf9, 0xfa, 0xf7, 0xfa, 0x0d, 0xf2, 0x02,
  0xfd, 0x01, 0xf1, 0xf2, 0xfd, 0xe6, 0x03, 0xf6, 0xf9, 0xfd, 0xfc, 0x01,
  0xf6, 0xf6, 0xbe, 0xf6, 0xe4, 0xf7, 0xd5, 0xfb, 0xfd, 0xf8, 0x00, 0xf5,
  0xfb, 0xf7, 0x0c, 0xff, 0x08, 0x0e, 0x09, 0x0e, 0xea, 0xff, 0xff, 0x09,
  0xfc, 0xf3, 0x0b, 0x03, 0x04, 0xfa, 0x0d, 0x0f, 0x05, 0x01, 0xf4, 0xf1,
  0xfb, 0xfa, 0xfa, 0x01, 0x04, 0xf8, 0x09, 0xf7, 0x0b, 0x01, 0x06, 0x0a,
  0x01, 0xe1, 0x0c, 0xe7, 0xfc, 0x04, 0x13, 0x06, 0x0b, 0x0a, 0x81, 0xf9,
  0xf9, 0xfd, 0xfd, 0xf3, 0x05, 0x05, 0xee, 0xe8, 0x03, 0x0b, 0xff, 0xf6,
  0xf6, 0x0b, 0xed, 0xfc, 0xf4, 0xf9, 0xfb, 0xe2, 0xf9, 0xfa, 0x06, 0x0b,
  0xfe, 0xff, 0x09, 0xea, 0xff, 0xeb, 0x05, 0xfb, 0xf4, 0x07, 0xfb, 0x07,
  0xf8, 0x0c, 0x06, 0x08, 0x0a, 0xf8, 0x02, 0x07, 0xf6, 0x05, 0x0a, 0x03,
  0xff, 0x09, 0xfa, 0xfc, 0xfd, 0xe8, 0xfc, 0x00, 0x0e, 0x0a, 0xfb, 0x0a,
  0x00, 0x17, 0xe9, 0xff, 0xf3, 0x04, 0x02, 0xfc, 0x01, 0x09, 0xf8, 0x00,
  0x08, 0x0d, 0xfe, 0xfe, 0xf7, 0x08, 0x01, 0x0a, 0xfe, 0x08, 0xfb, 0xfc,
  0xfe, 0x02, 0xfa, 0xf9, 0xfa, 0x05, 0xfc, 0xff, 0xfb, 0x11, 0xf0, 0x02,
  0xf9, 0xf8, 0x0e, 0xfa, 0xfd, 0xfd, 0xf0, 0xed, 0xfb, 0x0d, 0xf1, 0xf9,
  0x00, 0x0d, 0x04, 0xf9, 0x11, 0xfa, 0x0b, 0x05, 0x08, 0xee, 0xfe, 0xfe,
  0xf4, 0x02, 0xff, 0x11, 0xfb, 0xff, 0xe8, 0x08, 0x06, 0xfb, 0xfb, 0x06,
  0xf9, 0x0c, 0x0b, 0xe8, 0x04, 0xfc, 0xe8, 0xf7, 0x02, 0xf8, 0xfc, 0xf8,
  0x09, 0xfa, 0x08, 0x0b, 0xfe, 0xf4, 0xff, 0xff, 0x04, 0x00, 0x00, 0x00,
  0x80, 0x00, 0x00, 0x00, 0x15, 0x00, 0x00, 0x00, 0x6d, 0x00, 0x00, 0x00,
  0x53, 0x00, 0x00, 0x00, 0xf8, 0xff, 0xff, 0xff, 0xe7, 0xff, 0xff, 0xff,
  0xb8, 0xff, 0xff, 0xff, 0xe8, 0x00, 0x00, 0x00, 0x83, 0x00, 0x00, 0x00,
  0x6b, 0xff, 0xff, 0xff, 0x69, 0x00, 0x00, 0x00, 0x2a, 0x00, 0x00, 0x00,
  0x36, 0x00, 0x00, 0x00, 0x03, 0x00, 0x00, 0x00, 0x12, 0x00, 0x00, 0x00,
  0x8d, 0xff, 0xff, 0xff, 0xea, 0xff, 0xff, 0xff, 0xf3, 0xff, 0xff, 0xff,
  0x7a, 0x00, 0x00, 0x00, 0x0b, 0x00, 0x00, 0x00, 0x06, 0x00, 0x00, 0x00,
  0x98, 0x00, 0x00, 0x00, 0x20, 0xff, 0xff, 0xff, 0x60, 0xff, 0xff, 0xff,
  0x51, 0x00, 0x00, 0x00, 0xbb, 0xff, 0xff, 0xff, 0x8f, 0xfe, 0xff, 0xff,
  0xc2, 0xff, 0xff, 0xff, 0x8d, 0xff, 0xff, 0xff, 0x2e, 0x00, 0x00, 0x00,
  0x4e, 0xff, 0xff, 0xff, 0xdb, 0xff, 0xff, 0xff, 0xd2, 0xff, 0xff, 0xff,
  0x8a, 0xf5, 0xff, 0xff, 0x04, 0x00, 0x00, 0x00, 0x00, 0x09, 0x00, 0x00,
  0xe6, 0xe6, 0xd4, 0xed, 0xcd, 0xfa, 0xd5, 0xfb, 0x10, 0xb4, 0xf9, 0xff,
  0xf2, 0xee, 0x01, 0x00, 0x16, 0xc4, 0xff, 0x06, 0xfa, 0xf0, 0x00, 0xff,
  0x02, 0xee, 0xf7, 0xe5, 0x0a, 0xfe, 0xfb, 0xfb, 0x10, 0xdb, 0x08, 0xfa,
  0xfe, 0x03, 0x01, 0x05, 0x0a, 0xe6, 0x07, 0x04, 0xf9, 0x06, 0x09, 0x05,
  0x04, 0xe5, 0x04, 0xe3, 0x09, 0xfb, 0xfc, 0x07, 0x0b, 0xc9, 0x04, 0xf3,
  0x00, 0xfa, 0x06, 0x04, 0x03, 0xf9, 0x01, 0x02, 0xf5, 0xf9, 0xfe, 0x0a,
  0xf4, 0x12, 0xfa, 0x08, 0xeb, 0xe1, 0xf2, 0xf3, 0xf7, 0xf2, 0xef, 0x04,
  0xe2, 0xeb, 0xe3, 0xf5, 0xfd, 0xf7, 0xf5, 0xf2, 0xdb, 0xdc, 0xec, 0xee,
  0xf7, 0xf8, 0xff, 0xda, 0xcc, 0xf2, 0xe4, 0xee, 0x00, 0xea, 0xf6, 0xdf,
  0xbd, 0xf8, 0xf4, 0xef, 0xcb, 0xec, 0xf8, 0xe1, 0x12, 0xdd, 0xf1, 0xf0,
  0xfd, 0xfd, 0x08, 0xf9, 0xff, 0xfb, 0xfb, 0x01, 0xff, 0xf8, 0x07, 0xfb,
  0x0b, 0x16, 0xff, 0x03, 0xfc, 0xe8, 0x0a, 0xf7, 0x0a, 0x0f, 0x00, 0xff,
  0xfd, 0x0e, 0x04, 0x0d, 0xd3, 0xe4, 0x03, 0xf1, 0xdd, 0x11, 0x00, 0xec,
  0xe3, 0xe3, 0xd8, 0xf6, 0xef, 0xe0, 0xf2, 0xe9, 0x02, 0xea, 0xf8, 0x05,
  0xf0, 0xe6, 0x06, 0xf8, 0x05, 0xfe, 0xf6, 0xf9, 0x09, 0xe7, 0xf8, 0xc7,
  0x01, 0xfd, 0xe6, 0x07, 0x04, 0xcd, 0xf9, 0xff, 0xf9, 0x05, 0xe8, 0xfe,
  0x07, 0xeb, 0x0d, 0x03, 0xfe, 0xfa, 0x05, 0xfb, 0x05, 0xfb, 0xee, 0xfe,
  0xfd, 0x04, 0x09, 0xe5, 0xef, 0x05, 0xf9, 0x09, 0xfd, 0xf8, 0x0b, 0x00,
  0xee, 0xec, 0xec, 0xeb, 0xdb, 0xec, 0xe8, 0xd0, 0xe8, 0xf5, 0xdb, 0xed,
  0xdb, 0xf4, 0xfe, 0xfe, 0x0c, 0xdb, 0x0a, 0xe2, 0x0d, 0x26, 0x01, 0xff,
  0xeb, 0xfa, 0xeb, 0xfe, 0xe9, 0xe3, 0xf1, 0xfd, 0x07, 0xea, 0xf0, 0xe9,
  0xf1, 0xf4, 0x00, 0xff, 0xfe, 0xeb, 0x0b, 0xe7, 0x0d, 0x13, 0xfc, 0x06,
  0xfb, 0xfe, 0xf8, 0x03, 0xf2, 0xd8, 0x01, 0xfa, 0x03, 0xf4, 0xfb, 0xfb,
  0xf0, 0xf2, 0xfa, 0x00, 0x06, 0xfe, 0xff, 0x0a, 0x02, 0x0b, 0xf9, 0x07,
  0x03, 0xee, 0xf8, 0xea, 0xf8, 0xf4, 0xec, 0xfc, 0x0a, 0xf3, 0xeb, 0xf4,
  0xeb, 0xf0, 0xe2, 0xee, 0x12, 0xfd, 0xe7, 0xe6, 0xf9, 0xfa, 0xec, 0xf3,
  0xe7, 0xe4, 0xfb, 0x07, 0x01, 0xfb, 0x08, 0xfa, 0xd9, 0x0c, 0xf7, 0xfd,
  0xed, 0xfa, 0x08, 0xf3, 0xf9, 0xfb, 0xf8, 0x02, 0xf5, 0xf6, 0x05, 0xfc,
  0xff, 0xdb, 0xff, 0x0e, 0xd2, 0x0b, 0xd7, 0xf3, 0xfa, 0x02, 0xfe, 0x05,
  0xc9, 0x11, 0xe1, 0xf0, 0x06, 0xfd, 0x07, 0x08, 0xbe, 0x11, 0xd3, 0xf3,
  0x10, 0xfe, 0xf5, 0x14, 0xf5, 0xfe, 0xfb, 0xf7, 0x0a, 0xf7, 0xf5, 0x15,
  0x05, 0xef, 0x01, 0xf6, 0x09, 0xfc, 0xf9, 0x12, 0xf2, 0xfc, 0xfe, 0xee,
  0x06, 0x02, 0x0a, 0xf4, 0x09, 0x08, 0xfb, 0xf1, 0x09, 0x0b, 0x04, 0x01,
  0x09, 0x06, 0xfc, 0xeb, 0x05, 0x03, 0xf7, 0xf9, 0x09, 0x08, 0xf9, 0xf4,
  0x0a, 0x02, 0xff, 0xea, 0x17, 0x0c, 0x0e, 0xf7, 0x07, 0x02, 0xfc, 0xf2,
  0x0a, 0x00, 0x09, 0xf2, 0xf4, 0x05, 0xf1, 0x00, 0x17, 0x07, 0x11, 0xf6,
  0x07, 0x08, 0x01, 0x03, 0xf9, 0xf7, 0xfe, 0x01, 0x05, 0x09, 0xfe, 0x08,
  0xfa, 0x03, 0xff, 0x00, 0x09, 0x0e, 0xfc, 0x09, 0xf8, 0xf8, 0x01, 0xfe,
  0x02, 0x00, 0xff, 0x03, 0xfe, 0x06, 0xfc, 0xff, 0x02, 0xff, 0x09, 0xff,
  0x00, 0x07, 0x01, 0xfa, 0x02, 0x03, 0x00, 0x09, 0x00, 0x00, 0x05, 0xfc,
  0xf5, 0xf9, 0xd3, 0xf9, 0xa8, 0xfb, 0xad, 0xca, 0xf6, 0xfa, 0xe8, 0xfa,
  0xa9, 0xf0, 0x9b, 0xdd, 0xf7, 0xfa, 0xed, 0xfd, 0x9b, 0xfb, 0x8d, 0xb5,
  0xe3, 0xfa, 0xe4, 0xfa, 0xec, 0xe9, 0xf3, 0xf5, 0xef, 0xfa, 0xf4, 0xf7,
  0xe5, 0xf0, 0xea, 0xf3, 0xf0, 0xf5, 0xf6, 0xe4, 0xe7, 0xdd, 0xe1, 0xe9,
  0xec, 0xec, 0xf2, 0xe5, 0xfb, 0xa3, 0xf3, 0xaa, 0xcc, 0xd4, 0xfe, 0xd8,
  0xce, 0xee, 0xf6, 0xc2, 0xc4, 0xdd, 0xff, 0xee, 0xfa, 0xbc, 0xfc, 0xa7,
  0xfe, 0xfe, 0xfe, 0x03, 0xf6, 0x04, 0x0b, 0x07, 0x02, 0xf0, 0x02, 0x01,
  0xfa, 0xfe, 0x06, 0x01, 0x01, 0xfb, 0x03, 0x04, 0x00, 0xfe, 0x0c, 0x06,
  0x15, 0xff, 0xfc, 0x09, 0xf9, 0xcf, 0x05, 0xf9, 0x06, 0x08, 0xf9, 0x0a,
  0xe4, 0xbd, 0xfe, 0xf9, 0xfa, 0x0b, 0xf9, 0x0d, 0xef, 0xe6, 0x04, 0x02,
  0x0a, 0x00, 0xff, 0x07, 0x0b, 0xd6, 0x03, 0xfa, 0x03, 0x0a, 0x00, 0x09,
  0x07, 0xd3, 0xff, 0xfc, 0x02, 0x07, 0xfd, 0x04, 0xfd, 0xcf, 0xff, 0x05,
  0x05, 0x04, 0xfd, 0x0f, 0x1d, 0xce, 0x00, 0xf4, 0x01, 0x00, 0xff, 0x0c,
  0x13, 0xd6, 0xff, 0xf5, 0x05, 0x00, 0x00, 0x09, 0x0f, 0xd1, 0x01, 0xfa,
  0xef, 0xeb, 0xfe, 0xe2, 0xe5, 0x0f, 0xec, 0xe8, 0xf9, 0xff, 0xf5, 0xe0,
  0xed, 0xf2, 0xe2, 0xfc, 0xe6, 0xf8, 0xd7, 0xdf, 0xf4, 0x14, 0xe1, 0x04,
  0x91, 0x07, 0xf2, 0xee, 0xbb, 0xed, 0xf9, 0x94, 0xfe, 0xba, 0xdf, 0xf0,
  0xa6, 0xa8, 0x00, 0x97, 0xb7, 0xec, 0xf0, 0xeb, 0x9d, 0x03, 0xf6, 0x9f,
  0x03, 0x0a, 0xfb, 0x00, 0x06, 0xfb, 0xff, 0xf6, 0x04, 0x08, 0x0b, 0x03,
  0x07, 0xfc, 0x09, 0xf7, 0x01, 0x04, 0x07, 0x03, 0x04, 0xf9, 0x01, 0xec,
  0xe8, 0xf6, 0x00, 0xef, 0xf1, 0x05, 0xed, 0xe3, 0xdd, 0xec, 0xdd, 0xe2,
  0xdd, 0xec, 0xe3, 0xde, 0x02, 0xe8, 0xf3, 0xf5, 0x16, 0xf7, 0xf1, 0xef,
  0xd0, 0x0f, 0xf9, 0xf3, 0x09, 0x02, 0xf3, 0xec, 0xd7, 0xf2, 0xf8, 0x00,
  0xf5, 0x12, 0xec, 0xf3, 0x02, 0x00, 0xeb, 0xee, 0xe7, 0x00, 0xe5, 0x08,
  0xfc, 0xf8, 0x08, 0x00, 0x0a, 0x13, 0x00, 0x05, 0xfa, 0xe6, 0x03, 0xfc,
  0xfa, 0xf5, 0x05, 0xe7, 0xf8, 0xd8, 0xff, 0xe4, 0xfc, 0xf9, 0xf4, 0x0b,
  0x17, 0xde, 0xff, 0x04, 0x02, 0xed, 0xfd, 0x0c, 0x02, 0x04, 0x04, 0x09,
  0xfd, 0x0a, 0xfd, 0x05, 0xbd, 0x14, 0xfb, 0x09, 0xfa, 0xf0, 0xf8, 0xff,
  0x0a, 0xf1, 0x03, 0xe4, 0x0a, 0x03, 0xe5, 0x00, 0xfd, 0x06, 0xf7, 0x01,
  0xf4, 0x04, 0xd9, 0x03, 0xcd, 0x0f, 0xef, 0x07, 0xfc, 0x0f, 0x03, 0x06,
  0x07, 0xf4, 0xfe, 0xf9, 0x03, 0x08, 0xf7, 0xf7, 0xf5, 0xfb, 0xec, 0xd2,
  0xe4, 0xd5, 0xe5, 0xf9, 0xe8, 0x03, 0xc9, 0x08, 0x03, 0x07, 0xf4, 0x06,
  0xd1, 0xff, 0x03, 0x09, 0xee, 0xfc, 0x07, 0x01, 0xc6, 0xfb, 0x06, 0x03,
  0xf8, 0xf8, 0x00, 0xfa, 0xe8, 0xf1, 0x03, 0x00, 0xfc, 0xdd, 0x04, 0xf4,
  0xbd, 0x10, 0xf2, 0x0b, 0xfb, 0xfb, 0x03, 0xfc, 0xcc, 0x0d, 0x00, 0x0a,
  0xff, 0x05, 0x02, 0x03, 0xd6, 0xfd, 0x07, 0xff, 0x02, 0xfc, 0x00, 0x00,
  0xb7, 0x07, 0xa4, 0x05, 0xbb, 0xee, 0xc2, 0xfd, 0xd4, 0x09, 0xf3, 0x0b,
  0xfc, 0xfc, 0x0b, 0x03, 0xc1, 0x0b, 0xf9, 0x08, 0x0a, 0x01, 0xff, 0x05,
  0xec, 0xdc, 0x01, 0xfa, 0xfc, 0x07, 0x01, 0x02, 0xde, 0xf3, 0x06, 0x04,
  0xf9, 0x07, 0x03, 0xfc, 0xe2, 0xe2, 0xfd, 0xe4, 0xec, 0xd6, 0xfb, 0xe3,
  0xfa, 0x03, 0xfe, 0x07, 0xf4, 0x05, 0x04, 0x02, 0xfe, 0xfe, 0xfb, 0x03,
  0xfa, 0x06, 0x08, 0xfc, 0xf4, 0x03, 0xfa, 0x03, 0x02, 0xdf, 0xfd, 0xee,
  0xf9, 0x11, 0xf7, 0x08, 0x92, 0x09, 0xc4, 0xfa, 0x05, 0xf2, 0x15, 0xfe,
  0xa7, 0x09, 0xe7, 0xdf, 0xfa, 0x05, 0xe7, 0x0f, 0xb0, 0xf7, 0x0c, 0x03,
  0x0a, 0xfe, 0x0a, 0xdc, 0x01, 0x02, 0xfa, 0x0c, 0x0e, 0xed, 0x05, 0xd4,
  0xfc, 0x04, 0xf9, 0xf6, 0xf1, 0xf8, 0xfc, 0xe6, 0xe0, 0xeb, 0xdd, 0xed,
  0x05, 0x00, 0x0a, 0x0c, 0x02, 0xf3, 0xf8, 0x0a, 0xf9, 0xfb, 0xfd, 0x15,
  0x07, 0x00, 0xf5, 0xfa, 0xe3, 0x0f, 0xf0, 0x02, 0xcf, 0xe9, 0xf1, 0xe3,
  0xfb, 0x00, 0xed, 0x00, 0xfc, 0xff, 0xe9, 0xde, 0xc9, 0x04, 0xce, 0x0a,
  0xef, 0xd6, 0xfe, 0xe5, 0xe8, 0xff, 0xf6, 0x00, 0xd4, 0xed, 0x02, 0x13,
  0xfa, 0xb2, 0x0a, 0xf0, 0x07, 0x26, 0x01, 0x00, 0xf2, 0xde, 0x01, 0xb4,
  0xf6, 0x16, 0x02, 0xc0, 0xf6, 0xee, 0xff, 0xe2, 0xd6, 0xe8, 0xf1, 0xf1,
  0xf3, 0xce, 0x0b, 0xf8, 0xf9, 0x15, 0x03, 0x08, 0xed, 0xce, 0x01, 0xed,
  0xfb, 0x0a, 0x05, 0xf2, 0x00, 0xdb, 0x01, 0xf7, 0xe6, 0xe7, 0xfa, 0xfd,
  0x01, 0xfa, 0xfd, 0x0c, 0xf5, 0xf4, 0xf1, 0x0d, 0xe9, 0x06, 0x01, 0x04,
  0xf9, 0xf5, 0xfc, 0xfc, 0xfe, 0x01, 0xfe, 0x08, 0x01, 0xf1, 0xfe, 0xfd,
  0xf9, 0xd6, 0x00, 0xd2, 0x06, 0xd6, 0xf3, 0xd5, 0x05, 0x00, 0x03, 0xeb,
  0xcf, 0xeb, 0xeb, 0xdd, 0x0e, 0x12, 0xf8, 0x0a, 0xd1, 0xe2, 0xc9, 0xec,
  0x02, 0xac, 0x03, 0xde, 0x0e, 0x13, 0xfa, 0x01, 0xea, 0xa8, 0x00, 0xce,
  0x0a, 0x0a, 0xfb, 0x05, 0xeb, 0xf7, 0x02, 0xd8, 0x0a, 0x0e, 0xf6, 0xb9,
  0x0b, 0x00, 0xf8, 0x03, 0xff, 0x03, 0xfd, 0xfd, 0x00, 0x06, 0x09, 0x07,
  0x07, 0x07, 0x02, 0x06, 0x00, 0x05, 0x02, 0x01, 0x03, 0x01, 0x0b, 0xfc,
  0xfb, 0xd6, 0x06, 0x05, 0xf4, 0xed, 0x09, 0x05, 0xfd, 0xd7, 0x04, 0x0a,
  0xf4, 0xdb, 0x08, 0x01, 0xf5, 0xde, 0x06, 0x0d, 0xf5, 0xf3, 0x0a, 0x04,
  0x06, 0x01, 0xff, 0x10, 0xfc, 0xfd, 0xf9, 0x04, 0x03, 0x01, 0xfe, 0x0d,
  0x01, 0xfc, 0xf4, 0x05, 0x09, 0x00, 0xfa, 0x0e, 0xfc, 0x01, 0xf4, 0x05,
  0xfe, 0x00, 0xfd, 0xf8, 0x01, 0x0b, 0xe5, 0xfd, 0x00, 0x01, 0x02, 0xfc,
  0xfe, 0x12, 0xdf, 0xff, 0x03, 0xfc, 0x01, 0xf9, 0xf8, 0x0a, 0xe7, 0xf8,
  0x04, 0x03, 0x04, 0x0b, 0x01, 0x0d, 0xf8, 0x04, 0x04, 0x01, 0x01, 0x09,
  0xf3, 0x0d, 0xfc, 0x01, 0x03, 0x06, 0x01, 0x00, 0xfc, 0x12, 0xf3, 0x09,
  0xff, 0x04, 0x00, 0xf7, 0xd1, 0x0b, 0xf4, 0xf9, 0x07, 0x0a, 0xf7, 0x00,
  0xf3, 0x0c, 0xfd, 0xef, 0xfe, 0x00, 0x03, 0xe6, 0xce, 0x11, 0xcb, 0xee,
  0xd0, 0xed, 0xcb, 0xee, 0xdb, 0xb8, 0xe3, 0xd7, 0xed, 0xf1, 0xcb, 0xdc,
  0xeb, 0xe4, 0xe8, 0xcb, 0xf6, 0xe4, 0xdd, 0xf6, 0xe9, 0xc7, 0xdd, 0xdc,
  0x09, 0xf1, 0x0a, 0x0f, 0xf1, 0xf0, 0xff, 0xf7, 0xf6, 0xe6, 0xf2, 0x0b,
  0xc9, 0x08, 0xf2, 0xfe, 0x15, 0x0e, 0x09, 0xfd, 0xed, 0xf8, 0xea, 0x0d,
  0xf6, 0xf5, 0x0d, 0x01, 0xe8, 0xec, 0xf5, 0xef, 0xeb, 0xf8, 0xfa, 0xe7,
  0xe8, 0xf9, 0xec, 0xe3, 0xee, 0x02, 0xf8, 0xfe, 0xe7, 0xf0, 0xe5, 0x00,
  0xf2, 0x0c, 0xe5, 0xf7, 0xdb, 0xff, 0xd0, 0xea, 0xfc, 0xe7, 0xd6, 0xed,
  0xe9, 0xd7, 0xe4, 0xf5, 0xe8, 0xf7, 0xe3, 0xf1, 0xf0, 0xf5, 0x02, 0x05,
  0xdc, 0xb8, 0xf5, 0xe5, 0xd5, 0xc2, 0xfc, 0xd2, 0xdf, 0xd3, 0xff, 0xeb,
  0xd2, 0xcf, 0xff, 0xc7, 0xed, 0xd9, 0xfe, 0xf7, 0xd0, 0xe8, 0x00, 0xd2,
  0xfc, 0xec, 0x05, 0x08, 0xf4, 0xf2, 0x0b, 0x03, 0xf9, 0xef, 0x02, 0x0c,
  0xf6, 0xf6, 0x0b, 0x03, 0x00, 0xed, 0x07, 0x0c, 0xfa, 0xf2, 0x08, 0x02,
  0x06, 0x00, 0x00, 0x05, 0xf9, 0xfb, 0xfc, 0x00, 0x01, 0x01, 0xfb, 0x08,
  0xf9, 0xfe, 0xf5, 0x01, 0x00, 0x00, 0xfd, 0x08, 0xf8, 0x01, 0xf9, 0xfc,
  0xb0, 0xc4, 0xe7, 0xf5, 0x87, 0xe6, 0xfc, 0xcd, 0xe4, 0xde, 0xdf, 0xf6,
  0x81, 0xc4, 0xf8, 0xd3, 0xbe, 0xdf, 0xf6, 0xf3, 0xa7, 0xf9, 0xfb, 0xcc,
  0x0c, 0x0b, 0x0a, 0x0c, 0xec, 0x04, 0x02, 0xf6, 0x0f, 0x0b, 0x05, 0x0c,
  0xfa, 0x06, 0xfd, 0xf7, 0x0e, 0x0a, 0x04, 0x09, 0xef, 0x03, 0x01, 0xff,
  0x00, 0x06, 0xfe, 0x05, 0x06, 0x06, 0xf3, 0x01, 0x05, 0x03, 0x0d, 0xfe,
  0x01, 0x0d, 0xfd, 0x02, 0x0a, 0x01, 0x0b, 0x05, 0x0b, 0x01, 0x02, 0x01,
  0x0a, 0xec, 0xf8, 0x03, 0x07, 0x0e, 0xd4, 0x05, 0x0a, 0x0a, 0x10, 0x0f,
  0xd6, 0x15, 0xdf, 0x00, 0x08, 0x00, 0xed, 0x01, 0xe2, 0xec, 0xf9, 0x0f,
  0xeb, 0x04, 0xde, 0xf5, 0xf7, 0x02, 0xec, 0xec, 0xe9, 0xe1, 0xec, 0xea,
  0xf4, 0x08, 0xef, 0xed, 0xfd, 0x00, 0x04, 0xe2, 0xd9, 0x06, 0xf1, 0xfe,
  0xfe, 0xf2, 0xf8, 0xf7, 0xf8, 0xe2, 0xe4, 0xf0, 0x06, 0xf0, 0x02, 0x05,
  0x06, 0xfd, 0x06, 0xff, 0xfa, 0xea, 0x02, 0xf0, 0x02, 0xfe, 0x18, 0xea,
  0x01, 0xd8, 0xe8, 0xee, 0xfc, 0x0b, 0xfb, 0x04, 0xfb, 0xe9, 0x03, 0xf6,
  0xec, 0x12, 0xff, 0x05, 0xf2, 0xea, 0x06, 0xf8, 0xfa, 0x01, 0xfe, 0x06,
  0x0b, 0x02, 0xe3, 0xff, 0xf4, 0xec, 0x01, 0xfb, 0x0a, 0x0a, 0xfc, 0x01,
  0xec, 0x09, 0xf9, 0x05, 0x0d, 0x00, 0x02, 0xff, 0xf5, 0x08, 0xfc, 0x09,
  0x03, 0x03, 0xf6, 0xfe, 0xdb, 0xf5, 0xf9, 0xed, 0xff, 0x08, 0x00, 0xfd,
  0xcc, 0x07, 0xd8, 0xf6, 0x01, 0x03, 0x14, 0xfa, 0xe8, 0xff, 0xec, 0xf5,
  0xf3, 0x04, 0xf5, 0x05, 0xfd, 0xf6, 0x08, 0xff, 0x0a, 0xff, 0x07, 0x06,
  0x08, 0x11, 0x0b, 0x00, 0x0f, 0xfb, 0x04, 0xf8, 0xff, 0x15, 0x06, 0xf7,
  0x07, 0xf0, 0xef, 0xff, 0x09, 0xf9, 0x01, 0x08, 0x02, 0xfb, 0x04, 0x06,
  0xfe, 0x03, 0x06, 0x05, 0xf8, 0xf5, 0x05, 0xf8, 0x06, 0x01, 0xfa, 0xfe,
  0x0c, 0xea, 0x03, 0xf6, 0x05, 0xfc, 0x00, 0x00, 0x05, 0xf9, 0xf2, 0x07,
  0xeb, 0xc1, 0xf4, 0x03, 0xdf, 0x01, 0xf1, 0x03, 0xfa, 0xf3, 0x01, 0x01,
  0x09, 0x09, 0x08, 0x10, 0xf3, 0xfe, 0x02, 0xfe, 0x0e, 0x03, 0x03, 0x0b,
  0xfa, 0xfc, 0x03, 0xfc, 0x11, 0x00, 0x02, 0x0c, 0xf3, 0xfd, 0x02, 0xff,
  0x09, 0x03, 0x02, 0x15, 0xfc, 0x01, 0xfe, 0x02, 0x08, 0x09, 0x02, 0x0b,
  0xfb, 0x07, 0x00, 0x01, 0x0e, 0x09, 0x02, 0x10, 0xfe, 0xfa, 0xff, 0x06,
  0x0a, 0x03, 0x0a, 0x08, 0x05, 0x05, 0x08, 0x01, 0x07, 0x05, 0x02, 0x07,
  0xf8, 0x04, 0x06, 0x00, 0x02, 0x07, 0xff, 0x0c, 0x06, 0x06, 0x0c, 0x0c,
  0xd4, 0xf3, 0xc7, 0xd5, 0xdb, 0xf2, 0xf1, 0x05, 0xbc, 0xb6, 0x0b, 0xd2,
  0x15, 0x20, 0xf6, 0x07, 0xee, 0xef, 0x04, 0xe4, 0xfa, 0xfc, 0xff, 0xa1,
  0xfd, 0x03, 0xd6, 0xec, 0xd9, 0xff, 0xf7, 0xfb, 0xfa, 0xfd, 0x0e, 0xf4,
  0x11, 0x1e, 0xfc, 0x04, 0xe8, 0xe6, 0x00, 0xf1, 0xf3, 0x0b, 0x01, 0x00,
  0x00, 0xfe, 0x00, 0xea, 0xf3, 0xfa, 0x04, 0x01, 0x03, 0x00, 0x0c, 0x01,
  0xfb, 0x15, 0xfd, 0x06, 0x00, 0xfd, 0x05, 0x03, 0xf7, 0xf1, 0x01, 0xec,
  0x12, 0x0a, 0x00, 0x05, 0xff, 0xf2, 0xfe, 0x02, 0x0a, 0x16, 0xfd, 0x0c,
  0xfd, 0x08, 0xf9, 0x00, 0x09, 0x12, 0x03, 0x10, 0x01, 0xff, 0x01, 0x02,
  0x05, 0x07, 0x07, 0x08, 0xea, 0x0b, 0xfd, 0xfd, 0x00, 0x03, 0x0f, 0x01,
  0xfe, 0x19, 0xe8, 0x02, 0x05, 0x04, 0x10, 0x09, 0xf7, 0x11, 0xea, 0xfd,
  0xf5, 0xfc, 0xf5, 0xea, 0xfd, 0x03, 0xf1, 0x00, 0xfb, 0xff, 0x05, 0xe7,
  0xfc, 0x14, 0xdd, 0x04, 0xfa, 0xf3, 0x0b, 0xe6, 0xf8, 0x0f, 0xff, 0x0c,
  0xdd, 0x02, 0xf5, 0xbd, 0xfc, 0x16, 0xcf, 0x01, 0xfa, 0x01, 0xfd, 0x08,
  0xfd, 0x08, 0xfe, 0x09, 0x0b, 0x0a, 0x0d, 0x04, 0x00, 0xf8, 0x07, 0x09,
  0x00, 0xe2, 0x10, 0xe8, 0xeb, 0x07, 0x03, 0xfc, 0x08, 0xfc, 0xfb, 0xfd,
  0xff, 0xf6, 0xed, 0x03, 0x00, 0xff, 0xee, 0x09, 0xfb, 0xf9, 0xed, 0x09,
  0xfa, 0xdf, 0x04, 0xfd, 0xdf, 0xf7, 0xfe, 0xe0, 0xfe, 0x00, 0xfa, 0xf3,
  0xe2, 0xfb, 0xf8, 0xcc, 0xd8, 0xf9, 0xb3, 0xfd, 0xf6, 0x04, 0xf5, 0xe2,
  0xf5, 0x09, 0x09, 0x0e, 0xfb, 0x0d, 0x03, 0xfe, 0xf7, 0xf8, 0x03, 0x04,
  0xe6, 0xcf, 0xfd, 0x05, 0xfb, 0x0a, 0xf5, 0x02, 0xdb, 0xd9, 0x00, 0xfd,
  0xf6, 0x07, 0x07, 0x01, 0x04, 0x15, 0xf5, 0x04, 0xfb, 0x05, 0x09, 0x08,
  0xf6, 0xf6, 0xfb, 0xf1, 0x05, 0x03, 0xf7, 0x0e, 0xda, 0x05, 0x0e, 0x13,
  0x01, 0x02, 0x16, 0xdb, 0xfb, 0x08, 0xf5, 0x08, 0x04, 0x00, 0xff, 0xdf,
  0xf6, 0x0b, 0xe7, 0xe3, 0x01, 0x02, 0xfc, 0xef, 0xb3, 0x0a, 0xd0, 0xe3,
  0xee, 0xf1, 0x05, 0x06, 0xfb, 0x03, 0xfd, 0xfe, 0xd3, 0xf1, 0xfc, 0x00,
  0xf8, 0x06, 0xf9, 0xfb, 0xf5, 0xeb, 0xfe, 0xfa, 0xff, 0x01, 0x01, 0x04,
  0xec, 0x01, 0x04, 0xff, 0x0d, 0x0b, 0x01, 0xfe, 0xfa, 0xf8, 0x04, 0x03,
  0x07, 0x09, 0x03, 0xfe, 0x17, 0xf7, 0x04, 0xf8, 0x08, 0x0a, 0xfa, 0x03,
  0x03, 0x01, 0xf5, 0xf9, 0x17, 0xfd, 0xf7, 0x0b, 0x06, 0xfe, 0xfe, 0x02,
  0x10, 0x00, 0xfd, 0x06, 0x08, 0xfa, 0x0a, 0xfe, 0x11, 0x00, 0x00, 0xfc,
  0x0d, 0xf2, 0x00, 0x0e, 0xfd, 0xe6, 0x02, 0xfb, 0x08, 0xe5, 0xfb, 0xfb,
  0xfe, 0x02, 0xfb, 0xec, 0xfe, 0xd8, 0xfb, 0xf0, 0xf1, 0x0b, 0xe9, 0xeb,
  0xfe, 0x01, 0x0b, 0x0e, 0xfb, 0xf9, 0x0c, 0x03, 0x07, 0xf7, 0x0d, 0xf9,
  0x02, 0x05, 0xfa, 0xf4, 0x00, 0xe9, 0xfe, 0xf7, 0xed, 0x0f, 0xdb, 0xce,
  0x03, 0x04, 0x03, 0x06, 0x02, 0xfc, 0x02, 0x04, 0xf3, 0xfd, 0xff, 0xfd,
  0x01, 0xfd, 0x08, 0x07, 0xfa, 0xeb, 0x06, 0xfb, 0x03, 0xff, 0xff, 0xe0,
  0x96, 0xfe, 0xff, 0xff, 0x04, 0x00, 0x00, 0x00, 0x20, 0x00, 0x00, 0x00,
  0x0f, 0xfc, 0xff, 0xff, 0x55, 0x02, 0x00, 0x00, 0xe6, 0xf7, 0xff, 0xff,
  0x08, 0xfd, 0xff, 0xff, 0x1a, 0x02, 0x00, 0x00, 0x66, 0xf7, 0xff, 0xff,
  0x96, 0x00, 0x00, 0x00, 0xf7, 0xfd, 0xff, 0xff, 0xc2, 0xfe, 0xff, 0xff,
  0x04, 0x00, 0x00, 0x00, 0x90, 0x00, 0x00, 0x00, 0x00, 0x93, 0x00, 0xbf,
  0xee, 0x67, 0x01, 0x0c, 0xfe, 0xf2, 0x00, 0x06, 0xf3, 0x7f, 0x00, 0xa6,
  0x00, 0x82, 0xf9, 0x62, 0xfb, 0x27, 0xfd, 0x06, 0x00, 0xa4, 0x03, 0x81,
  0xfc, 0xa1, 0x00, 0x01, 0x02, 0xf9, 0xf8, 0x69, 0x00, 0xaf, 0xfd, 0x0b,
  0xff, 0xf6, 0xfc, 0xd4, 0x01, 0xf8, 0x01, 0xe3, 0x81, 0x36, 0x00, 0xe3,
  0x01, 0xdb, 0x00, 0xf8, 0x00, 0xda, 0x00, 0xbe, 0xea, 0x49, 0xf9, 0x0f,
  0xfb, 0x36, 0x00, 0xda, 0x00, 0x81, 0xff, 0x1a, 0xff, 0xf4, 0xf3, 0x7f,
  0x00, 0xfa, 0x01, 0xb2, 0x00, 0x8b, 0x00, 0x9e, 0xf8, 0x34, 0xfe, 0x30,
  0xfa, 0x37, 0x00, 0xe0, 0xf7, 0x6c, 0x00, 0xc9, 0xff, 0x91, 0xf9, 0x81,
  0x00, 0xa2, 0x00, 0x01, 0xbb, 0x58, 0x00, 0x0e, 0xff, 0xc7, 0x00, 0xbf,
  0xff, 0xc6, 0xff, 0x0d, 0xff, 0xf7, 0xff, 0xe8, 0xfc, 0x48, 0x00, 0xe3,
  0xfe, 0x7f, 0x01, 0xf8, 0x00, 0xe5, 0xf3, 0xc7, 0xff, 0xd3, 0xfd, 0x35,
  0x01, 0x3a, 0xff, 0xa5, 0xd0, 0xf3, 0x81, 0xfa, 0x5e, 0xff, 0xff, 0xff,
  0x04, 0x00, 0x00, 0x00, 0x08, 0x00, 0x00, 0x00, 0xff, 0xff, 0xff, 0xff,
  0x48, 0x00, 0x00, 0x00, 0xb0, 0xf6, 0xff, 0xff, 0xb4, 0xf6, 0xff, 0xff,
  0x0f, 0x00, 0x00, 0x00, 0x4d, 0x4c, 0x49, 0x52, 0x20, 0x43, 0x6f, 0x6e,
  0x76, 0x65, 0x72, 0x74, 0x65, 0x64, 0x2e, 0x00, 0x01, 0x00, 0x00, 0x00,
  0x14, 0x00, 0x00, 0x00, 0x00, 0x00, 0x0e, 0x00, 0x18, 0x00, 0x14, 0x00,
  0x10, 0x00, 0x0c, 0x00, 0x08, 0x00, 0x04, 0x00, 0x0e, 0x00, 0x00, 0x00,
  0x14, 0x00, 0x00, 0x00, 0x1c, 0x00, 0x00, 0x00, 0xcc, 0x01, 0x00, 0x00,
  0xd0, 0x01, 0x00, 0x00, 0xd4, 0x01, 0x00, 0x00, 0x04, 0x00, 0x00, 0x00,
  0x6d, 0x61, 0x69, 0x6e, 0x00, 0x00, 0x00, 0x00, 0x06, 0x00, 0x00, 0x00,
  0x64, 0x01, 0x00, 0x00, 0x00, 0x01, 0x00, 0x00, 0xc8, 0x00, 0x00, 0x00,
  0x78, 0x00, 0x00, 0x00, 0x40, 0x00, 0x00, 0x00, 0x04, 0x00, 0x00, 0x00,
  0x22, 0xff, 0xff, 0xff, 0x1c, 0x00, 0x00, 0x00, 0x00, 0x00, 0x00, 0x09,
  0x1c, 0x00, 0x00, 0x00, 0x20, 0x00, 0x00, 0x00, 0x04, 0x00, 0x00, 0x00,
  0x00, 0x00, 0x06, 0x00, 0x08, 0x00, 0x04, 0x00, 0x06, 0x00, 0x00, 0x00,
  0x00, 0x00, 0x80, 0x3f, 0x01, 0x00, 0x00, 0x00, 0x0d, 0x00, 0x00, 0x00,
  0x01, 0x00, 0x00, 0x00, 0x0c, 0x00, 0x00, 0x00, 0x5a, 0xff, 0xff, 0xff,
  0x14, 0x00, 0x00, 0x00, 0x00, 0x00, 0x00, 0x08, 0x10, 0x00, 0x00, 0x00,
  0x14, 0x00, 0x00, 0x00, 0x03, 0x00, 0x00, 0x00, 0x74, 0xf7, 0xff, 0xff,
  0x01, 0x00, 0x00, 0x00, 0x0c, 0x00, 0x00, 0x00, 0x03, 0x00, 0x00, 0x00,
  0x0b, 0x00, 0x00, 0x00, 0x06, 0x00, 0x00, 0x00, 0x07, 0x00, 0x00, 0x00,
  0x8e, 0xff, 0xff, 0xff, 0x1c, 0x00, 0x00, 0x00, 0x00, 0x00, 0x00, 0x08,
  0x1c, 0x00, 0x00, 0x00, 0x20, 0x00, 0x00, 0x00, 0x03, 0x00, 0x00, 0x00,
  0x00, 0x00, 0x06, 0x00, 0x08, 0x00, 0x07, 0x00, 0x06, 0x00, 0x00, 0x00,
  0x00, 0x00, 0x00, 0x01, 0x01, 0x00, 0x00, 0x00, 0x0b, 0x00, 0x00, 0x00,
  0x03, 0x00, 0x00, 0x00, 0x0a, 0x00, 0x00, 0x00, 0x04, 0x00, 0x00, 0x00,
  0x05, 0x00, 0x00, 0x00, 0x00, 0x00, 0x0a, 0x00, 0x10, 0x00, 0x0c, 0x00,
  0x08, 0x00, 0x04, 0x00, 0x0a, 0x00, 0x00, 0x00, 0x0c, 0x00, 0x00, 0x00,
  0x10, 0x00, 0x00, 0x00, 0x02, 0x00, 0x00, 0x00, 0x01, 0x00, 0x00, 0x00,
  0x0a, 0x00, 0x00, 0x00, 0x02, 0x00, 0x00, 0x00, 0x09, 0x00, 0x00, 0x00,
  0x01, 0x00, 0x00, 0x00, 0x00, 0x00, 0x0e, 0x00, 0x1a, 0x00, 0x14, 0x00,
  0x10, 0x00, 0x0c, 0x00, 0x0b, 0x00, 0x04, 0x00, 0x0e, 0x00, 0x00, 0x00,
  0x24, 0x00, 0x00, 0x00, 0x00, 0x00, 0x00, 0x05, 0x34, 0x00, 0x00, 0x00,
  0x38, 0x00, 0x00, 0x00, 0x01, 0x00, 0x00, 0x00, 0x00, 0x00, 0x0e, 0x00,
  0x18, 0x00, 0x17, 0x00, 0x10, 0x00, 0x0c, 0x00, 0x08, 0x00, 0x04, 0x00,
  0x0e, 0x00, 0x00, 0x00, 0x02, 0x00, 0x00, 0x00, 0x02, 0x00, 0x00, 0x00,
  0x02, 0x00, 0x00, 0x00, 0x02, 0x00, 0x00, 0x00, 0x00, 0x00, 0x00, 0x01,
  0x01, 0x00, 0x00, 0x00, 0x09, 0x00, 0x00, 0x00, 0x01, 0x00, 0x00, 0x00,
  0x08, 0x00, 0x00, 0x00, 0x00, 0x00, 0x0e, 0x00, 0x14, 0x00, 0x00, 0x00,
  0x10, 0x00, 0x0c, 0x00, 0x0b, 0x00, 0x04, 0x00, 0x0e, 0x00, 0x00, 0x00,
  0x1c, 0x00, 0x00, 0x00, 0x00, 0x00, 0x00, 0x01, 0x28, 0x00, 0x00, 0x00,
  0x2c, 0x00, 0x00, 0x00, 0x0c, 0x00, 0x14, 0x00, 0x13, 0x00, 0x0c, 0x00,
  0x08, 0x00, 0x07, 0x00, 0x0c, 0x00, 0x00, 0x00, 0x00, 0x00, 0x00, 0x01,
  0x01, 0x00, 0x00, 0x00, 0x01, 0x00, 0x00, 0x00, 0x00, 0x00, 0x00, 0x01,
  0x01, 0x00, 0x00, 0x00, 0x08, 0x00, 0x00, 0x00, 0x03, 0x00, 0x00, 0x00,
  0x00, 0x00, 0x00, 0x00, 0x02, 0x00, 0x00, 0x00, 0x03, 0x00, 0x00, 0x00,
  0x01, 0x00, 0x00, 0x00, 0x0d, 0x00, 0x00, 0x00, 0x01, 0x00, 0x00, 0x00,
  0x00, 0x00, 0x00, 0x00, 0x0e, 0x00, 0x00, 0x00, 0x7c, 0x07, 0x00, 0x00,
  0x14, 0x07, 0x00, 0x00, 0x38, 0x06, 0x00, 0x00, 0x8c, 0x05, 0x00, 0x00,
  0x18, 0x05, 0x00, 0x00, 0xc4, 0x04, 0x00, 0x00, 0x50, 0x04, 0x00, 0x00,
  0xf4, 0x03, 0x00, 0x00, 0x10, 0x03, 0x00, 0x00, 0x74, 0x02, 0x00, 0x00,
  0xf0, 0x01, 0x00, 0x00, 0x2c, 0x01, 0x00, 0x00, 0x80, 0x00, 0x00, 0x00,
  0x04, 0x00, 0x00, 0x00, 0xd0, 0xf8, 0xff, 0xff, 0x18, 0x00, 0x00, 0x00,
  0x20, 0x00, 0x00, 0x00, 0x40, 0x00, 0x00, 0x00, 0x0e, 0x00, 0x00, 0x00,
  0x00, 0x00, 0x00, 0x09, 0x54, 0x00, 0x00, 0x00, 0x02, 0x00, 0x00, 0x00,
  0xff, 0xff, 0xff, 0xff, 0x08, 0x00, 0x00, 0x00, 0xb4, 0xf8, 0xff, 0xff,
  0x08, 0x00, 0x00, 0x00, 0x14, 0x00, 0x00, 0x00, 0x01, 0x00, 0x00, 0x00,
  0x80, 0xff, 0xff, 0xff, 0xff, 0xff, 0xff, 0xff, 0x00, 0x00, 0x00, 0x00,
  0x01, 0x00, 0x00, 0x00, 0x00, 0x00, 0x80, 0x3b, 0x19, 0x00, 0x00, 0x00,
  0x53, 0x74, 0x61, 0x74, 0x65, 0x66, 0x75, 0x6c, 0x50, 0x61, 0x72, 0x74,
  0x69, 0x74, 0x69, 0x6f, 0x6e, 0x65, 0x64, 0x43, 0x61, 0x6c, 0x6c, 0x3a,
  0x30, 0x00, 0x00, 0x00, 0x02, 0x00, 0x00, 0x00, 0x01, 0x00, 0x00, 0x00,
  0x08, 0x00, 0x00, 0x00, 0x48, 0xf9, 0xff, 0xff, 0x18, 0x00, 0x00, 0x00,
  0x20, 0x00, 0x00, 0x00, 0x40, 0x00, 0x00, 0x00, 0x0d, 0x00, 0x00, 0x00,
  0x00, 0x00, 0x00, 0x09, 0x84, 0x00, 0x00, 0x00, 0x02, 0x00, 0x00, 0x00,
  0xff, 0xff, 0xff, 0xff, 0x08, 0x00, 0x00, 0x00, 0x2c, 0xf9, 0xff, 0xff,
  0x08, 0x00, 0x00, 0x00, 0x14, 0x00, 0x00, 0x00, 0x01, 0x00, 0x00, 0x00,
  0xfe, 0xff, 0xff, 0xff, 0xff, 0xff, 0xff, 0xff, 0x00, 0x00, 0x00, 0x00,
  0x01, 0x00, 0x00, 0x00, 0x2a, 0x1e, 0xf3, 0x3f, 0x48, 0x00, 0x00, 0x00,
  0x43, 0x4e, 0x4e, 0x32, 0x44, 0x5f, 0x53, 0x54, 0x5f, 0x48, 0x61, 0x6e,
  0x64, 0x50, 0x6f, 0x73, 0x74, 0x75, 0x72, 0x65, 0x2f, 0x64, 0x65, 0x6e,
  0x73, 0x65, 0x5f, 0x31, 0x2f, 0x4d, 0x61, 0x74, 0x4d, 0x75, 0x6c, 0x3b,
  0x43, 0x4e, 0x4e, 0x32, 0x44, 0x5f, 0x53, 0x54, 0x5f, 0x48, 0x61, 0x6e,
  0x64, 0x50, 0x6f, 0x73, 0x74, 0x75, 0x72, 0x65, 0x2f, 0x64, 0x65, 0x6e,
  0x73, 0x65, 0x5f, 0x31, 0x2f, 0x42, 0x69, 0x61, 0x73, 0x41, 0x64, 0x64,
  0x00, 0x00, 0x00, 0x00, 0x02, 0x00, 0x00, 0x00, 0x01, 0x00, 0x00, 0x00,
  0x08, 0x00, 0x00, 0x00, 0xf0, 0xf9, 0xff, 0xff, 0x18, 0x00, 0x00, 0x00,
  0x20, 0x00, 0x00, 0x00, 0x3c, 0x00, 0x00, 0x00, 0x0c, 0x00, 0x00, 0x00,
  0x00, 0x00, 0x00, 0x09, 0x9c, 0x00, 0x00, 0x00, 0x02, 0x00, 0x00, 0x00,
  0xff, 0xff, 0xff, 0xff, 0x20, 0x00, 0x00, 0x00, 0xd4, 0xf9, 0xff, 0xff,
  0x08, 0x00, 0x00, 0x00, 0x10, 0x00, 0x00, 0x00, 0x01, 0x00, 0x00, 0x00,
  0x80, 0xff, 0xff, 0xff, 0xff, 0xff, 0xff, 0xff, 0x01, 0x00, 0x00, 0x00,
  0x45, 0x8e, 0xa8, 0x3f, 0x64, 0x00, 0x00, 0x00, 0x43, 0x4e, 0x4e, 0x32,
  0x44, 0x5f, 0x53, 0x54, 0x5f, 0x48, 0x61, 0x6e, 0x64, 0x50, 0x6f, 0x73,
  0x74, 0x75, 0x72, 0x65, 0x2f, 0x64, 0x65, 0x6e, 0x73, 0x65, 0x2f, 0x4d,
  0x61, 0x74, 0x4d, 0x75, 0x6c, 0x3b, 0x43, 0x4e, 0x4e, 0x32, 0x44, 0x5f,
  0x53, 0x54, 0x5f, 0x48, 0x61, 0x6e, 0x64, 0x50, 0x6f, 0x73, 0x74, 0x75,
  0x72, 0x65, 0x2f, 0x64, 0x65, 0x6e, 0x73, 0x65, 0x2f, 0x52, 0x65, 0x6c,
  0x75, 0x3b, 0x43, 0x4e, 0x4e, 0x32, 0x44, 0x5f, 0x53, 0x54, 0x5f, 0x48,
  0x61, 0x6e, 0x64, 0x50, 0x6f, 0x73, 0x74, 0x75, 0x72, 0x65, 0x2f, 0x64,
  0x65, 0x6e, 0x73, 0x65, 0x2f, 0x42, 0x69, 0x61, 0x73, 0x41, 0x64, 0x64,
  0x00, 0x00, 0x00, 0x00, 0x02, 0x00, 0x00, 0x00, 0x01, 0x00, 0x00, 0x00,
  0x20, 0x00, 0x00, 0x00, 0xb0, 0xfa, 0xff, 0xff, 0x18, 0x00, 0x00, 0x00,
  0x20, 0x00, 0x00, 0x00, 0x3c, 0x00, 0x00, 0x00, 0x0b, 0x00, 0x00, 0x00,
  0x00, 0x00, 0x00, 0x09, 0x5c, 0x00, 0x00, 0x00, 0x02, 0x00, 0x00, 0x00,
  0xff, 0xff, 0xff, 0xff, 0x48, 0x00, 0x00, 0x00, 0x94, 0xfa, 0xff, 0xff,
  0x08, 0x00, 0x00, 0x00, 0x10, 0x00, 0x00, 0x00, 0x01, 0x00, 0x00, 0x00,
  0x80, 0xff, 0xff, 0xff, 0xff, 0xff, 0xff, 0xff, 0x01, 0x00, 0x00, 0x00,
  0x94, 0xc7, 0x69, 0x3e, 0x24, 0x00, 0x00, 0x00, 0x43, 0x4e, 0x4e, 0x32,
  0x44, 0x5f, 0x53, 0x54, 0x5f, 0x48, 0x61, 0x6e, 0x64, 0x50, 0x6f, 0x73,
  0x74, 0x75, 0x72, 0x65, 0x2f, 0x66, 0x6c, 0x61, 0x74, 0x74, 0x65, 0x6e,
  0x2f, 0x52, 0x65, 0x73, 0x68, 0x61, 0x70, 0x65, 0x00, 0x00, 0x00, 0x00,
  0x02, 0x00, 0x00, 0x00, 0x01, 0x00, 0x00, 0x00, 0x48, 0x00, 0x00, 0x00,
  0x30, 0xfb, 0xff, 0xff, 0x18, 0x00, 0x00, 0x00, 0x28, 0x00, 0x00, 0x00,
  0x48, 0x00, 0x00, 0x00, 0x0a, 0x00, 0x00, 0x00, 0x00, 0x00, 0x00, 0x09,
  0x6c, 0x00, 0x00, 0x00, 0x04, 0x00, 0x00, 0x00, 0xff, 0xff, 0xff, 0xff,
  0x03, 0x00, 0x00, 0x00, 0x03, 0x00, 0x00, 0x00, 0x08, 0x00, 0x00, 0x00,
  0x1c, 0xfb, 0xff, 0xff, 0x08, 0x00, 0x00, 0x00, 0x14, 0x00, 0x00, 0x00,
  0x01, 0x00, 0x00, 0x00, 0x80, 0xff, 0xff, 0xff, 0xff, 0xff, 0xff, 0xff,
  0x00, 0x00, 0x00, 0x00, 0x01, 0x00, 0x00, 0x00, 0x94, 0xc7, 0x69, 0x3e,
  0x2a, 0x00, 0x00, 0x00, 0x43, 0x4e, 0x4e, 0x32, 0x44, 0x5f, 0x53, 0x54,
  0x5f, 0x48, 0x61, 0x6e, 0x64, 0x50, 0x6f, 0x73, 0x74, 0x75, 0x72, 0x65,
  0x2f, 0x6d, 0x61, 0x78, 0x5f, 0x70, 0x6f, 0x6f, 0x6c, 0x69, 0x6e, 0x67,
  0x32, 0x64, 0x2f, 0x4d, 0x61, 0x78, 0x50, 0x6f, 0x6f, 0x6c, 0x00, 0x00,
  0x04, 0x00, 0x00, 0x00, 0x01, 0x00, 0x00, 0x00, 0x03, 0x00, 0x00, 0x00,
  0x03, 0x00, 0x00, 0x00, 0x08, 0x00, 0x00, 0x00, 0xc8, 0xfb, 0xff, 0xff,
  0x18, 0x00, 0x00, 0x00, 0x28, 0x00, 0x00, 0x00, 0x44, 0x00, 0x00, 0x00,
  0x09, 0x00, 0x00, 0x00, 0x00, 0x00, 0x00, 0x09, 0xb4, 0x00, 0x00, 0x00,
  0x04, 0x00, 0x00, 0x00, 0xff, 0xff, 0xff, 0xff, 0x06, 0x00, 0x00, 0x00,
  0x06, 0x00, 0x00, 0x00, 0x08, 0x00, 0x00, 0x00, 0xb4, 0xfb, 0xff, 0xff,
  0x08, 0x00, 0x00, 0x00, 0x10, 0x00, 0x00, 0x00, 0x01, 0x00, 0x00, 0x00,
  0x80, 0xff, 0xff, 0xff, 0xff, 0xff, 0xff, 0xff, 0x01, 0x00, 0x00, 0x00,
  0x94, 0xc7, 0x69, 0x3e, 0x77, 0x00, 0x00, 0x00, 0x43, 0x4e, 0x4e, 0x32,
  0x44, 0x5f, 0x53, 0x54, 0x5f, 0x48, 0x61, 0x6e, 0x64, 0x50, 0x6f, 0x73,
  0x74, 0x75, 0x72, 0x65, 0x2f, 0x61, 0x63, 0x74, 0x69, 0x76, 0x61, 0x74,
  0x69, 0x6f, 0x6e, 0x2f, 0x52, 0x65, 0x6c, 0x75, 0x3b, 0x43, 0x4e, 0x4e,
  0x32, 0x44, 0x5f, 0x53, 0x54, 0x5f, 0x48, 0x61, 0x6e, 0x64, 0x50, 0x6f,
  0x73, 0x74, 0x75, 0x72, 0x65, 0x2f, 0x63, 0x6f, 0x6e, 0x76, 0x32, 0x64,
  0x2f, 0x42, 0x69, 0x61, 0x73, 0x41, 0x64, 0x64, 0x3b, 0x43, 0x4e, 0x4e,
  0x32, 0x44, 0x5f, 0x53, 0x54, 0x5f, 0x48, 0x61, 0x6e, 0x64, 0x50, 0x6f,
  0x73, 0x74, 0x75, 0x72, 0x65, 0x2f, 0x63, 0x6f, 0x6e, 0x76, 0x32, 0x64,
  0x2f, 0x43, 0x6f, 0x6e, 0x76, 0x32, 0x44, 0x3b, 0x63, 0x6f, 0x6e, 0x76,
  0x32, 0x64, 0x2f, 0x62, 0x69, 0x61, 0x73, 0x00, 0x04, 0x00, 0x00, 0x00,
  0x01, 0x00, 0x00, 0x00, 0x06, 0x00, 0x00, 0x00, 0x06, 0x00, 0x00, 0x00,
  0x08, 0x00, 0x00, 0x00, 0x06, 0xfd, 0xff, 0xff, 0x14, 0x00, 0x00, 0x00,
  0x34, 0x00, 0x00, 0x00, 0x08, 0x00, 0x00, 0x00, 0x00, 0x00, 0x00, 0x02,
  0x3c, 0x00, 0x00, 0x00, 0x7c, 0xfc, 0xff, 0xff, 0x08, 0x00, 0x00, 0x00,
  0x14, 0x00, 0x00, 0x00, 0x01, 0x00, 0x00, 0x00, 0x00, 0x00, 0x00, 0x00,
  0x00, 0x00, 0x00, 0x00, 0x00, 0x00, 0x00, 0x00, 0x01, 0x00, 0x00, 0x00,
  0x6e, 0x94, 0x55, 0x3d, 0x0c, 0x00, 0x00, 0x00, 0x64, 0x65, 0x6e, 0x73,
  0x65, 0x5f, 0x31, 0x2f, 0x62, 0x69, 0x61, 0x73, 0x00, 0x00, 0x00, 0x00,
  0x01, 0x00, 0x00, 0x00, 0x08, 0x00, 0x00, 0x00, 0x5e, 0xfd, 0xff, 0xff,
  0x14, 0x00, 0x00, 0x00, 0x34, 0x00, 0x00, 0x00, 0x07, 0x00, 0x00, 0x00,
  0x00, 0x00, 0x00, 0x09, 0x50, 0x00, 0x00, 0x00, 0xd4, 0xfc, 0xff, 0xff,
  0x08, 0x00, 0x00, 0x00, 0x14, 0x00, 0x00, 0x00, 0x01, 0x00, 0x00, 0x00,
  0x00, 0x00, 0x00, 0x00, 0x00, 0x00, 0x00, 0x00, 0x00, 0x00, 0x00, 0x00,
  0x01, 0x00, 0x00, 0x00, 0xe2, 0x30, 0x22, 0x3d, 0x23, 0x00, 0x00, 0x00,
  0x43, 0x4e, 0x4e, 0x32, 0x44, 0x5f, 0x53, 0x54, 0x5f, 0x48, 0x61, 0x6e,
  0x64, 0x50, 0x6f, 0x73, 0x74, 0x75, 0x72, 0x65, 0x2f, 0x64, 0x65, 0x6e,
  0x73, 0x65, 0x5f, 0x31, 0x2f, 0x4d, 0x61, 0x74, 0x4d, 0x75, 0x6c, 0x00,
  0x02, 0x00, 0x00, 0x00, 0x08, 0x00, 0x00, 0x00, 0x20, 0x00, 0x00, 0x00,
  0xce, 0xfd, 0xff, 0xff, 0x14, 0x00, 0x00, 0x00, 0x30, 0x00, 0x00, 0x00,
  0x06, 0x00, 0x00, 0x00, 0x00, 0x00, 0x00, 0x02, 0x34, 0x00, 0x00, 0x00,
  0x44, 0xfd, 0xff, 0xff, 0x08, 0x00, 0x00, 0x00, 0x10, 0x00, 0x00, 0x00,
  0x01, 0x00, 0x00, 0x00, 0x00, 0x00, 0x00, 0x00, 0x00, 0x00, 0x00, 0x00,
  0x01, 0x00, 0x00, 0x00, 0xb4, 0x5f, 0x8a, 0x3c, 0x0a, 0x00, 0x00, 0x00,
  0x64, 0x65, 0x6e, 0x73, 0x65, 0x2f, 0x62, 0x69, 0x61, 0x73, 0x00, 0x00,
  0x01, 0x00, 0x00, 0x00, 0x20, 0x00, 0x00, 0x00, 0x1e, 0xfe, 0xff, 0xff,
  0x14, 0x00, 0x00, 0x00, 0x34, 0x00, 0x00, 0x00, 0x05, 0x00, 0x00, 0x00,
  0x00, 0x00, 0x00, 0x09, 0x50, 0x00, 0x00, 0x00, 0x94, 0xfd, 0xff, 0xff,
  0x08, 0x00, 0x00, 0x00, 0x14, 0x00, 0x00, 0x00, 0x01, 0x00, 0x00, 0x00,
  0x00, 0x00, 0x00, 0x00, 0x00, 0x00, 0x00, 0x00, 0x00, 0x00, 0x00, 0x00,
  0x01, 0x00, 0x00, 0x00, 0xac, 0x86, 0x97, 0x3d, 0x21, 0x00, 0x00, 0x00,
  0x43, 0x4e, 0x4e, 0x32, 0x44, 0x5f, 0x53, 0x54, 0x5f, 0x48, 0x61, 0x6e,
  0x64, 0x50, 0x6f, 0x73, 0x74, 0x75, 0x72, 0x65, 0x2f, 0x64, 0x65, 0x6e,
  0x73, 0x65, 0x2f, 0x4d, 0x61, 0x74, 0x4d, 0x75, 0x6c, 0x00, 0x00, 0x00,
  0x02, 0x00, 0x00, 0x00, 0x20, 0x00, 0x00, 0x00, 0x48, 0x00, 0x00, 0x00,
  0x8e, 0xfe, 0xff, 0xff, 0x14, 0x00, 0x00, 0x00, 0x88, 0x00, 0x00, 0x00,
  0x04, 0x00, 0x00, 0x00, 0x00, 0x00, 0x00, 0x02, 0x8c, 0x00, 0x00, 0x00,
  0x04, 0xfe, 0xff, 0xff, 0x08, 0x00, 0x00, 0x00, 0x4c, 0x00, 0x00, 0x00,
  0x08, 0x00, 0x00, 0x00, 0x00, 0x00, 0x00, 0x00, 0x00, 0x00, 0x00, 0x00,
  0x00, 0x00, 0x00, 0x00, 0x00, 0x00, 0x00, 0x00, 0x00, 0x00, 0x00, 0x00,
  0x00, 0x00, 0x00, 0x00, 0x00, 0x00, 0x00, 0x00, 0x00, 0x00, 0x00, 0x00,
  0x00, 0x00, 0x00, 0x00, 0x00, 0x00, 0x00, 0x00, 0x00, 0x00, 0x00, 0x00,
  0x00, 0x00, 0x00, 0x00, 0x00, 0x00, 0x00, 0x00, 0x00, 0x00, 0x00, 0x00,
  0x00, 0x00, 0x00, 0x00, 0x00, 0x00, 0x00, 0x00, 0x00, 0x00, 0x00, 0x00,
  0x08, 0x00, 0x00, 0x00, 0x6b, 0xbc, 0x98, 0x3a, 0xb4, 0xd1, 0xa0, 0x3a,
  0xec, 0xe7, 0xf8, 0x3a, 0x30, 0x1c, 0xfb, 0x3a, 0x0c, 0x55, 0xc1, 0x3a,
  0x1b, 0x12, 0xdf, 0x3a, 0xbd, 0x3f, 0xa1, 0x3a, 0x4a, 0x3f, 0x78, 0x3a,
  0x0b, 0x00, 0x00, 0x00, 0x63, 0x6f, 0x6e, 0x76, 0x32, 0x64, 0x2f, 0x62,
  0x69, 0x61, 0x73, 0x00, 0x01, 0x00, 0x00, 0x00, 0x08, 0x00, 0x00, 0x00,
  0x36, 0xff, 0xff, 0xff, 0x14, 0x00, 0x00, 0x00, 0x84, 0x00, 0x00, 0x00,
  0x03, 0x00, 0x00, 0x00, 0x00, 0x00, 0x00, 0x09, 0xa0, 0x00, 0x00, 0x00,
  0xac, 0xfe, 0xff, 0xff, 0x08, 0x00, 0x00, 0x00, 0x48, 0x00, 0x00, 0x00,
  0x08, 0x00, 0x00, 0x00, 0x00, 0x00, 0x00, 0x00, 0x00, 0x00, 0x00, 0x00,
  0x00, 0x00, 0x00, 0x00, 0x00, 0x00, 0x00, 0x00, 0x00, 0x00, 0x00, 0x00,
  0x00, 0x00, 0x00, 0x00, 0x00, 0x00, 0x00, 0x00, 0x00, 0x00, 0x00, 0x00,
  0x00, 0x00, 0x00, 0x00, 0x00, 0x00, 0x00, 0x00, 0x00, 0x00, 0x00, 0x00,
  0x00, 0x00, 0x00, 0x00, 0x00, 0x00, 0x00, 0x00, 0x00, 0x00, 0x00, 0x00,
  0x00, 0x00, 0x00, 0x00, 0x00, 0x00, 0x00, 0x00, 0x08, 0x00, 0x00, 0x00,
  0x87, 0xc7, 0x28, 0x3d, 0x2b, 0xb6, 0x31, 0x3d, 0x88, 0x86, 0x89, 0x3d,
  0x4d, 0xbe, 0x8a, 0x3d, 0xcc, 0xa3, 0x55, 0x3d, 0x88, 0x80, 0x76, 0x3d,
  0xc3, 0x2f, 0x32, 0x3d, 0x5c, 0x29, 0x09, 0x3d, 0x22, 0x00, 0x00, 0x00,
  0x43, 0x4e, 0x4e, 0x32, 0x44, 0x5f, 0x53, 0x54, 0x5f, 0x48, 0x61, 0x6e,
  0x64, 0x50, 0x6f, 0x73, 0x74, 0x75, 0x72, 0x65, 0x2f, 0x63, 0x6f, 0x6e,
  0x76, 0x32, 0x64, 0x2f, 0x43, 0x6f, 0x6e, 0x76, 0x32, 0x44, 0x00, 0x00,
  0x04, 0x00, 0x00, 0x00, 0x08, 0x00, 0x00, 0x00, 0x03, 0x00, 0x00, 0x00,
  0x03, 0x00, 0x00, 0x00, 0x02, 0x00, 0x00, 0x00, 0x00, 0x00, 0x0e, 0x00,
  0x18, 0x00, 0x14, 0x00, 0x13, 0x00, 0x0c, 0x00, 0x08, 0x00, 0x04, 0x00,
  0x0e, 0x00, 0x00, 0x00, 0x18, 0x00, 0x00, 0x00, 0x18, 0x00, 0x00, 0x00,
  0x02, 0x00, 0x00, 0x00, 0x00, 0x00, 0x00, 0x02, 0x34, 0x00, 0x00, 0x00,
  0x04, 0x00, 0x04, 0x00, 0x04, 0x00, 0x00, 0x00, 0x22, 0x00, 0x00, 0x00,
  0x43, 0x4e, 0x4e, 0x32, 0x44, 0x5f, 0x53, 0x54, 0x5f, 0x48, 0x61, 0x6e,
  0x64, 0x50, 0x6f, 0x73, 0x74, 0x75, 0x72, 0x65, 0x2f, 0x66, 0x6c, 0x61,
  0x74, 0x74, 0x65, 0x6e, 0x2f, 0x43, 0x6f, 0x6e, 0x73, 0x74, 0x00, 0x00,
  0x01, 0x00, 0x00, 0x00, 0x02, 0x00, 0x00, 0x00, 0x14, 0x00, 0x1c, 0x00,
  0x18, 0x00, 0x17, 0x00, 0x10, 0x00, 0x0c, 0x00, 0x08, 0x00, 0x00, 0x00,
  0x00, 0x00, 0x04, 0x00, 0x14, 0x00, 0x00, 0x00, 0x18, 0x00, 0x00, 0x00,
  0x34, 0x00, 0x00, 0x00, 0x50, 0x00, 0x00, 0x00, 0x01, 0x00, 0x00, 0x00,
  0x00, 0x00, 0x00, 0x09, 0x64, 0x00, 0x00, 0x00, 0x04, 0x00, 0x00, 0x00,
  0xff, 0xff, 0xff, 0xff, 0x08, 0x00, 0x00, 0x00, 0x08, 0x00, 0x00, 0x00,
  0x02, 0x00, 0x00, 0x00, 0x0c, 0x00, 0x0c, 0x00, 0x00, 0x00, 0x00, 0x00,
  0x08, 0x00, 0x04, 0x00, 0x0c, 0x00, 0x00, 0x00, 0x08, 0x00, 0x00, 0x00,
  0x10, 0x00, 0x00, 0x00, 0x01, 0x00, 0x00, 0x00, 0x0a, 0x00, 0x00, 0x00,
  0x00, 0x00, 0x00, 0x00, 0x01, 0x00, 0x00, 0x00, 0x73, 0xaa, 0xe7, 0x3c,
  0x19, 0x00, 0x00, 0x00, 0x73, 0x65, 0x72, 0x76, 0x69, 0x6e, 0x67, 0x5f,
  0x64, 0x65, 0x66, 0x61, 0x75, 0x6c, 0x74, 0x5f, 0x69, 0x6e, 0x70, 0x75,
  0x74, 0x5f, 0x31, 0x3a, 0x30, 0x00, 0x00, 0x00, 0x04, 0x00, 0x00, 0x00,
  0x01, 0x00, 0x00, 0x00, 0x08, 0x00, 0x00, 0x00, 0x08, 0x00, 0x00, 0x00,
  0x02, 0x00, 0x00, 0x00, 0x05, 0x00, 0x00, 0x00, 0x68, 0x00, 0x00, 0x00,
  0x48, 0x00, 0x00, 0x00, 0x38, 0x00, 0x00, 0x00, 0x18, 0x00, 0x00, 0x00,
  0x04, 0x00, 0x00, 0x00, 0xb8, 0xff, 0xff, 0xff, 0x19, 0x00, 0x00, 0x00,
  0x02, 0x00, 0x00, 0x00, 0x00, 0x00, 0x00, 0x19, 0xc8, 0xff, 0xff, 0xff,
  0x09, 0x00, 0x00, 0x00, 0x04, 0x00, 0x00, 0x00, 0x00, 0x00, 0x00, 0x09,
  0x0c, 0x00, 0x0c, 0x00, 0x0b, 0x00, 0x00, 0x00, 0x00, 0x00, 0x04, 0x00,
  0x0c, 0x00, 0x00, 0x00, 0x16, 0x00, 0x00, 0x00, 0x00, 0x00, 0x00, 0x16,
  0xf0, 0xff, 0xff, 0xff, 0x11, 0x00, 0x00, 0x00, 0x02, 0x00, 0x00, 0x00,
  0x00, 0x00, 0x00, 0x11, 0x0c, 0x00, 0x10, 0x00, 0x0f, 0x00, 0x00, 0x00,
  0x08, 0x00, 0x04, 0x00, 0x0c, 0x00, 0x00, 0x00, 0x03, 0x00, 0x00, 0x00,
  0x03, 0x00, 0x00, 0x00, 0x00, 0x00, 0x00, 0x03,
};

#endif // HAND_POSTURE_MODEL_H
